<unk>	0
<s>	0
</s>	0
▁the	-2.92251
s	-3.11241
▁of	-3.51672
▁and	-3.8685
ed	-3.87528
▁one	-3.88023
▁in	-3.95579
▁a	-3.99174
▁to	-4.12055
▁zero	-4.32327
▁nine	-4.37816
▁two	-4.6422
ing	-4.64823
▁is	-4.68292
y	-4.72992
ly	-4.81198
▁s	-5.05435
▁eight	-5.06951
▁for	-5.10274
▁as	-5.13375
▁five	-5.15132
▁three	-5.15999
▁was	-5.17246
▁by	-5.18503
▁that	-5.20713
▁four	-5.21674
▁six	-5.27263
▁with	-5.28173
▁seven	-5.29931
d	-5.33871
▁be	-5.35193
▁on	-5.35861
▁it	-5.50461
▁are	-5.56008
▁from	-5.61421
▁or	-5.64529
e	-5.64999
▁an	-5.71658
▁his	-5.76425
▁this	-5.82862
▁he	-5.86325
▁at	-5.89088
▁	-5.89327
▁which	-5.89904
▁not	-6.06565
▁also	-6.11075
▁have	-6.21899
▁were	-6.23618
▁other	-6.24538
▁has	-6.25297
▁but	-6.33317
ies	-6.35587
▁their	-6.45179
er	-6.4979
▁some	-6.4999
▁first	-6.53748
▁can	-6.53938
▁had	-6.55475
▁most	-6.57769
▁all	-6.58316
▁who	-6.59814
▁more	-6.60958
▁its	-6.64568
▁new	-6.65527
▁been	-6.67009
▁year	-6.68627
a	-6.7062
▁such	-6.70741
▁many	-6.72341
▁there	-6.75623
▁b	-6.76858
▁used	-6.78948
▁american	-6.82474
▁after	-6.82821
▁d	-6.83113
▁time	-6.83319
▁i	-6.84044
n	-6.8517
▁when	-6.85882
t	-6.8679
▁into	-6.88414
▁see	-6.88964
▁these	-6.91486
es	-6.91787
▁may	-6.9254
▁they	-6.95428
▁than	-6.96548
▁only	-6.97477
▁system	-6.9799
▁world	-6.98545
▁no	-7.00482
▁would	-7.03998
▁call	-7.06327
▁use	-7.06707
▁e	-7.0795
ver	-7.10076
▁war	-7.10596
▁over	-7.12036
o	-7.14279
▁between	-7.14734
▁people	-7.15169
▁name	-7.15617
▁about	-7.15759
us	-7.16257
▁howe	-7.16302
▁part	-7.19004
▁m	-7.19457
▁c	-7.19774
▁state	-7.20316
▁th	-7.21381
▁if	-7.21708
ity	-7.22846
▁language	-7.23117
▁known	-7.23331
▁united	-7.23554
▁states	-7.24299
▁general	-7.26522
▁t	-7.26873
▁de	-7.28124
▁form	-7.28191
▁so	-7.29464
▁under	-7.29603
▁through	-7.31949
▁up	-7.31999
▁w	-7.32551
▁will	-7.32635
▁g	-7.3359
▁often	-7.33842
on	-7.34699
▁where	-7.34992
▁her	-7.36126
▁history	-7.36758
▁number	-7.38035
▁great	-7.38196
▁includ	-7.38417
▁government	-7.38623
▁while	-7.38882
▁city	-7.39189
▁out	-7.39346
▁dur	-7.40358
▁example	-7.42046
▁english	-7.4213
▁n	-7.4221
▁well	-7.42377
▁both	-7.43059
▁made	-7.43314
▁any	-7.43664
▁being	-7.44645
▁work	-7.44719
▁f	-7.45985
▁x	-7.46781
▁u	-7.48492
▁them	-7.49546
▁common	-7.50418
▁later	-7.5064
▁him	-7.52412
▁since	-7.53113
▁then	-7.53163
▁like	-7.53866
▁century	-7.54699
▁high	-7.55071
▁force	-7.55697
cause	-7.56481
▁life	-7.56887
▁university	-7.58205
▁early	-7.58414
▁area	-7.59077
▁british	-7.59465
ism	-7.59898
▁large	-7.5998
▁day	-7.6001
▁play	-7.61013
i	-7.6199
▁same	-7.62072
▁national	-7.63501
came	-7.63539
▁even	-7.63582
h	-7.63913
▁include	-7.6482
▁each	-7.65135
▁although	-7.67461
▁do	-7.68237
▁several	-7.68764
▁john	-7.69344
▁p	-7.69781
out	-7.69885
▁list	-7.70974
al	-7.71012
▁order	-7.71534
▁second	-7.72169
▁small	-7.7224
▁very	-7.72243
▁much	-7.72499
▁french	-7.73236
▁consider	-7.73369
▁before	-7.73947
▁what	-7.74159
▁german	-7.74353
▁power	-7.74557
▁place	-7.74936
ic	-7.7545
▁she	-7.75725
▁r	-7.76023
▁could	-7.76709
▁major	-7.77624
▁old	-7.77808
▁main	-7.7843
▁film	-7.78509
▁now	-7.78969
▁human	-7.79339
▁based	-7.79543
▁own	-7.79587
▁links	-7.79832
▁term	-7.80057
those	-7.80173
▁different	-7.80208
▁player	-7.80304
um	-7.80388
▁music	-7.80502
▁set	-7.80541
able	-7.80598
▁long	-7.80823
▁group	-7.80848
▁h	-7.81559
▁game	-7.82685
▁end	-7.82696
▁external	-7.82917
nother	-7.83242
▁modern	-7.83715
▁law	-7.84009
▁we	-7.84158
▁king	-7.84265
▁original	-7.85539
▁south	-7.85657
▁k	-7.86073
▁international	-7.86192
▁country	-7.8688
▁series	-7.87422
▁book	-7.87825
▁still	-7.88967
▁north	-7.89207
▁usual	-7.8923
est	-7.89439
▁support	-7.89465
▁l	-7.8955
▁president	-7.90042
▁until	-7.90518
▁popular	-7.90913
▁found	-7.9118
▁un	-7.9202
▁did	-7.94068
▁god	-7.94392
▁show	-7.94682
▁v	-7.95064
▁non	-7.95087
▁death	-7.95157
▁political	-7.95437
▁church	-7.95484
▁school	-7.96521
▁man	-7.97777
▁allow	-7.98108
▁way	-7.98293
▁party	-7.9843
▁change	-7.98783
▁you	-7.98955
▁among	-7.98976
▁public	-7.99041
▁article	-7.9908
m	-7.99086
▁service	-7.99795
▁agains	-7.9987
▁point	-7.99935
▁ii	-8.00103
▁population	-8.00135
▁official	-8.01565
▁around	-8.01971
▁free	-8.02188
▁theory	-8.02204
▁mean	-8.02372
▁military	-8.04602
r	-8.0481
▁claim	-8.04822
▁o	-8.04917
▁though	-8.05084
▁particular	-8.05375
▁st	-8.05385
▁short	-8.05577
▁develop	-8.05603
▁last	-8.05621
▁rule	-8.05685
▁us	-8.05712
▁using	-8.05964
▁left	-8.06082
▁j	-8.06198
▁following	-8.06727
▁japan	-8.0692
▁christian	-8.07036
▁act	-8.07068
▁european	-8.0729
▁within	-8.07528
▁computer	-8.07778
▁west	-8.07958
▁science	-8.08314
▁version	-8.08898
▁due	-8.08915
▁right	-8.09021
▁east	-8.09087
▁word	-8.09476
▁near	-8.09625
an	-8.10429
▁appear	-8.1048
▁important	-8.10643
▁back	-8.10706
▁similar	-8.11513
▁sometime	-8.11727
▁per	-8.11757
▁roman	-8.11841
▁make	-8.12258
▁information	-8.12842
▁period	-8.13253
▁family	-8.134
▁land	-8.1457
▁start	-8.14825
▁line	-8.15268
▁wide	-8.15625
▁does	-8.16162
▁union	-8.16369
▁case	-8.16474
▁age	-8.16554
▁control	-8.16677
▁water	-8.16695
▁present	-8.17092
▁home	-8.17093
▁given	-8.17839
gan	-8.1833
▁result	-8.1856
▁every	-8.18714
▁become	-8.19603
▁less	-8.19632
▁house	-8.20169
▁few	-8.203
▁contain	-8.20365
▁members	-8.20519
▁level	-8.20623
▁problem	-8.21548
▁region	-8.22516
▁island	-8.22542
▁born	-8.2271
▁again	-8.22855
▁how	-8.22936
▁various	-8.23113
▁single	-8.23332
▁thus	-8.23354
▁york	-8.23502
▁program	-8.23789
▁remain	-8.24137
▁countr	-8.24141
either	-8.24171
▁air	-8.24174
▁central	-8.24354
▁down	-8.24491
▁final	-8.24579
▁isbn	-8.24935
▁greek	-8.25182
▁development	-8.25403
▁effect	-8.25602
▁should	-8.26039
st	-8.26199
▁return	-8.2632
▁according	-8.26454
ritten	-8.26579
▁western	-8.2661
▁led	-8.26878
▁al	-8.27005
▁europe	-8.27365
▁process	-8.27501
▁open	-8.27517
▁full	-8.27781
▁never	-8.28565
▁exist	-8.28639
▁black	-8.29151
▁complete	-8.29166
ness	-8.29641
▁re	-8.30051
▁former	-8.30065
▁space	-8.30253
▁must	-8.30443
▁france	-8.31063
▁late	-8.31071
▁best	-8.31459
day	-8.31533
▁record	-8.31558
▁million	-8.31714
▁college	-8.31823
▁culture	-8.31953
▁attempt	-8.32316
▁recent	-8.32344
en	-8.32468
▁further	-8.32771
▁person	-8.33081
▁site	-8.3333
▁real	-8.33385
ese	-8.33425
▁sea	-8.3357
▁value	-8.33892
▁communit	-8.34001
▁lead	-8.34227
▁light	-8.3443
▁publish	-8.34451
▁field	-8.35365
▁earth	-8.35716
▁data	-8.35879
▁economic	-8.35897
▁kingdom	-8.36289
▁need	-8.363
self	-8.36397
▁court	-8.36463
▁km	-8.36623
▁england	-8.36739
▁along	-8.36898
▁just	-8.37028
▁influence	-8.37157
▁standard	-8.37188
▁times	-8.37197
▁view	-8.37484
▁rather	-8.37627
▁natural	-8.37673
man	-8.38097
▁off	-8.38134
▁america	-8.38414
▁element	-8.38435
▁men	-8.38497
▁social	-8.38521
▁individual	-8.38831
▁local	-8.38852
▁establish	-8.39096
▁position	-8.39314
▁empire	-8.39334
▁provide	-8.39357
▁feature	-8.39812
▁said	-8.40057
l	-8.40191
▁design	-8.40214
▁london	-8.40311
▁republic	-8.40368
▁good	-8.40373
▁germany	-8.407
▁team	-8.40724
▁body	-8.40783
▁total	-8.40799
▁direct	-8.40956
▁company	-8.41097
▁issue	-8.41238
▁character	-8.4136
▁unit	-8.41885
▁third	-8.41909
▁method	-8.42213
▁army	-8.42287
▁certain	-8.42454
▁groups	-8.42831
▁traditional	-8.42989
▁event	-8.43093
▁writer	-8.43254
▁take	-8.43443
▁river	-8.43711
▁white	-8.43791
▁cause	-8.43887
▁role	-8.43906
▁battle	-8.44134
▁fact	-8.44387
▁increase	-8.44414
▁attack	-8.44727
le	-8.44847
▁idea	-8.4505
▁strong	-8.45199
▁object	-8.45381
▁soviet	-8.45603
▁title	-8.46077
▁creat	-8.46189
▁structure	-8.46327
▁current	-8.46543
▁works	-8.46597
▁son	-8.46635
▁father	-8.47028
▁games	-8.47035
▁held	-8.47167
▁young	-8.47915
▁especial	-8.48153
▁product	-8.48408
▁image	-8.49041
▁red	-8.49067
▁la	-8.49172
▁press	-8.49599
▁side	-8.498
▁rate	-8.49848
▁society	-8.50131
▁possible	-8.50511
▁close	-8.50806
▁famous	-8.51042
▁far	-8.51178
▁co	-8.514
▁took	-8.51408
▁art	-8.51446
▁actual	-8.51526
ce	-8.51724
ry	-8.51899
▁limit	-8.51905
▁follow	-8.51946
▁children	-8.52172
▁league	-8.52319
▁special	-8.53837
▁himself	-8.53851
▁represent	-8.54145
▁march	-8.54249
▁production	-8.54268
▁center	-8.55435
▁hav	-8.55483
▁practice	-8.55536
▁little	-8.55979
▁material	-8.56007
▁subject	-8.5609
▁function	-8.56272
▁hand	-8.56285
▁head	-8.56485
▁seen	-8.56613
▁network	-8.56638
▁type	-8.56682
▁above	-8.57136
▁member	-8.57315
▁pass	-8.57328
▁software	-8.57481
▁council	-8.57578
▁largest	-8.57618
▁movement	-8.57768
▁catholic	-8.57905
▁upon	-8.57955
▁style	-8.57979
▁believe	-8.5809
▁historical	-8.58174
▁anti	-8.58546
▁typical	-8.586
▁accept	-8.58619
▁meaning	-8.58811
▁source	-8.58895
▁james	-8.59197
▁came	-8.59366
land	-8.59551
▁month	-8.60036
almost	-8.60106
▁minister	-8.60116
▁jewish	-8.60166
▁y	-8.60309
▁range	-8.6032
▁low	-8.60381
▁islands	-8.60401
▁once	-8.60427
▁study	-8.60481
▁religious	-8.60548
▁books	-8.60573
▁turn	-8.60717
▁band	-8.60736
▁januar	-8.60875
▁william	-8.609
▁research	-8.61142
▁references	-8.61178
▁award	-8.61322
▁produc	-8.6163
▁code	-8.61732
▁actor	-8.61826
▁rock	-8.61981
▁class	-8.62254
▁story	-8.62539
ion	-8.62712
▁sign	-8.62819
▁thought	-8.62863
▁move	-8.62911
▁market	-8.62933
▁page	-8.6325
▁live	-8.63304
▁movie	-8.6332
▁interest	-8.6335
▁ancient	-8.63374
▁release	-8.6362
▁george	-8.63852
▁television	-8.63965
▁related	-8.6398
▁foreign	-8.64045
▁bc	-8.64282
▁northern	-8.64363
ber	-8.64373
▁help	-8.64461
▁words	-8.64485
▁give	-8.64608
▁middle	-8.65016
▁civil	-8.65419
c	-8.65469
▁model	-8.65662
▁energy	-8.65994
ves	-8.66049
▁trade	-8.6619
▁machine	-8.66215
▁add	-8.66445
▁making	-8.66485
▁regard	-8.66563
▁women	-8.66602
▁canada	-8.66692
▁december	-8.66716
▁next	-8.66719
▁run	-8.66749
▁chinese	-8.66979
▁availabl	-8.67028
▁david	-8.67039
▁living	-8.67246
▁might	-8.67364
▁kill	-8.67416
▁days	-8.67454
▁referr	-8.67482
▁latin	-8.67542
▁project	-8.6786
▁concept	-8.6813
▁post	-8.68163
▁earli	-8.68219
▁radio	-8.68367
▁author	-8.68398
▁died	-8.684
▁china	-8.68443
▁animal	-8.68506
▁reason	-8.68645
▁charles	-8.68731
▁capital	-8.69093
▁produce	-8.69257
▁significant	-8.69469
▁season	-8.69502
▁star	-8.69614
stead	-8.69757
▁half	-8.69815
▁eastern	-8.69829
▁continu	-8.69938
▁july	-8.69988
▁text	-8.70233
▁female	-8.70326
▁relative	-8.70346
▁test	-8.70446
▁z	-8.70531
▁built	-8.70538
▁together	-8.7059
▁office	-8.7066
▁rights	-8.71525
▁emperor	-8.7183
▁prime	-8.72222
▁india	-8.72257
▁independent	-8.72364
▁business	-8.72397
▁novel	-8.72478
▁perform	-8.72582
ation	-8.72663
▁com	-8.72726
▁addition	-8.73266
▁italian	-8.73372
▁russian	-8.7349
▁june	-8.73534
▁uk	-8.74883
▁account	-8.75293
▁terms	-8.75364
low	-8.75454
▁territor	-8.75613
least	-8.75631
▁origin	-8.75944
▁entire	-8.7606
▁always	-8.76093
▁economy	-8.76156
▁station	-8.76361
▁est	-8.76413
▁november	-8.76508
▁my	-8.76685
▁go	-8.76759
▁top	-8.76797
▁question	-8.7683
▁nature	-8.77049
▁thing	-8.7734
▁studie	-8.77344
▁note	-8.77546
▁august	-8.77742
▁reach	-8.77917
▁april	-8.77971
is	-8.78024
▁album	-8.78024
▁love	-8.78034
▁toward	-8.7849
▁robert	-8.7854
▁numbers	-8.7858
▁septem	-8.7858
▁legal	-8.79008
▁require	-8.79064
▁previous	-8.79105
▁lost	-8.79142
▁taken	-8.79166
▁arm	-8.79254
▁won	-8.79303
▁condition	-8.79304
▁sound	-8.79626
▁separate	-8.79685
▁technology	-8.79831
▁southern	-8.79915
▁spanish	-8.80064
▁royal	-8.80085
▁octob	-8.80178
▁true	-8.80293
▁tradition	-8.80367
▁application	-8.80629
▁evidence	-8.8111
▁eventual	-8.81309
▁cross	-8.81405
▁song	-8.81457
▁director	-8.81739
▁describe	-8.81793
▁come	-8.81946
▁paul	-8.82088
▁size	-8.82415
▁base	-8.82573
▁africa	-8.82687
▁wrot	-8.82872
▁town	-8.83422
▁me	-8.83527
▁suggest	-8.8362
▁difficult	-8.83819
▁fire	-8.83865
▁australia	-8.83886
▁our	-8.83927
▁elect	-8.84124
▁physical	-8.84409
▁indian	-8.84464
▁self	-8.84498
▁continue	-8.84658
▁ever	-8.85007
▁lower	-8.8513
▁technique	-8.85383
▁basic	-8.85428
▁african	-8.85454
▁personal	-8.8553
▁themsel	-8.85586
▁car	-8.85688
▁action	-8.85728
▁here	-8.8576
▁degree	-8.86368
▁serve	-8.86473
▁coast	-8.86599
▁division	-8.86723
▁mass	-8.86961
▁clear	-8.86995
▁key	-8.87189
▁therefore	-8.87506
▁green	-8.87571
▁male	-8.87924
▁food	-8.88241
▁februar	-8.88298
▁done	-8.88343
▁education	-8.88429
▁create	-8.8844
▁species	-8.88579
▁definition	-8.88765
▁irish	-8.88805
▁philosophy	-8.88805
spite	-8.89251
▁israel	-8.89382
▁successful	-8.89531
▁higher	-8.89556
▁citie	-8.89611
▁concern	-8.8964
▁brother	-8.89823
▁amount	-8.89826
▁receiv	-8.89938
▁activit	-8.90091
▁plant	-8.90124
▁experience	-8.90144
▁football	-8.90169
ish	-8.90296
▁normal	-8.90309
hether	-8.90349
▁complex	-8.90352
▁nations	-8.90388
▁cost	-8.90514
▁introduc	-8.90538
▁internet	-8.90816
▁speak	-8.91262
▁releas	-8.9153
▁seem	-8.91658
▁figure	-8.91827
▁simpl	-8.92017
▁occur	-8.92195
▁access	-8.92356
▁canadian	-8.92381
during	-8.926
▁poet	-8.92637
▁beginning	-8.92687
▁blue	-8.92693
▁chief	-8.92719
▁engine	-8.92792
▁parliament	-8.9339
▁factor	-8.93484
▁leader	-8.93577
▁video	-8.93904
▁discover	-8.94206
▁extreme	-8.94321
▁defin	-8.94352
▁jews	-8.94463
▁able	-8.94487
in	-8.94569
▁get	-8.94643
▁pre	-8.94659
▁belief	-8.94971
▁join	-8.94983
not	-8.95141
▁cases	-8.95164
▁difference	-8.95243
▁building	-8.95323
▁maintain	-8.95505
▁look	-8.95572
▁equal	-8.95576
▁purpose	-8.95576
▁enter	-8.95638
▁outside	-8.95732
▁fiction	-8.95889
▁club	-8.96385
▁gain	-8.96542
▁scientific	-8.96723
▁frequent	-8.96732
▁too	-8.96867
▁offer	-8.9689
▁describ	-8.97045
▁color	-8.97159
▁initial	-8.97322
▁henry	-8.97428
▁specific	-8.97612
▁future	-8.97868
▁section	-8.97879
▁went	-8.97953
▁relationship	-8.98021
▁artist	-8.9813
▁mother	-8.9825
▁singer	-8.98461
▁association	-8.98673
▁find	-8.98814
▁speed	-8.99126
▁organization	-8.99248
▁put	-8.99297
▁independenc	-8.99302
▁park	-8.9931
▁night	-8.99441
▁characters	-8.99601
▁consist	-8.99602
▁cover	-8.99654
▁detail	-8.99665
▁aircraft	-8.99667
▁commercial	-8.99728
▁writing	-9.00047
▁sense	-9.00518
▁vote	-9.00752
▁reference	-9.00861
ton	-9.00907
▁ball	-9.00982
▁link	-9.01252
▁industry	-9.01292
▁surface	-9.0131
▁stage	-9.01499
▁religion	-9.01621
▁principle	-9.01621
▁mid	-9.01625
▁classical	-9.01752
▁native	-9.01774
▁increasing	-9.01909
▁chemical	-9.02206
▁success	-9.02384
▁border	-9.02429
▁letter	-9.02573
▁website	-9.02781
▁hard	-9.02965
▁adopt	-9.03063
▁australian	-9.03327
▁britain	-9.03408
▁extend	-9.03577
▁blood	-9.03591
▁births	-9.03653
▁week	-9.03665
▁election	-9.03778
▁probabl	-9.03796
▁constitution	-9.04039
▁ireland	-9.04082
▁say	-9.04161
▁formed	-9.04283
▁locat	-9.04328
▁films	-9.04507
▁lord	-9.04842
▁charge	-9.04856
▁media	-9.04933
▁types	-9.04937
▁knowledge	-9.05102
▁california	-9.0511
▁simple	-9.05226
▁soon	-9.05381
▁performance	-9.05414
▁variet	-9.05642
▁length	-9.05889
▁course	-9.06126
z	-9.06555
▁prize	-9.0663
▁federal	-9.06719
▁prevent	-9.06761
▁yet	-9.06773
▁device	-9.06821
▁resource	-9.06821
▁saint	-9.06883
▁private	-9.06893
▁away	-9.06965
▁province	-9.06994
▁nation	-9.06998
▁double	-9.07059
▁reform	-9.07063
▁career	-9.07246
▁bank	-9.0747
▁temperature	-9.07473
▁cell	-9.07539
▁county	-9.0758
▁associat	-9.07692
▁dead	-9.07785
▁effort	-9.07858
▁involv	-9.0796
▁additional	-9.08123
▁policy	-9.08169
▁designed	-9.08218
▁channel	-9.08309
▁cultural	-9.08354
▁past	-9.0839
▁thomas	-9.08431
▁brought	-9.08488
▁weapon	-9.08705
▁peter	-9.08731
ia	-9.0874
▁read	-9.08907
▁refer	-9.08961
▁era	-9.09
▁board	-9.09086
▁your	-9.09179
▁depend	-9.09265
▁hour	-9.09286
▁russia	-9.0931
ous	-9.09312
▁lake	-9.09462
▁working	-9.09549
▁na	-9.09635
▁currently	-9.09648
▁online	-9.09727
▁saw	-9.09994
▁command	-9.10309
▁across	-9.10516
▁deaths	-9.10627
▁programm	-9.1068
▁want	-9.10717
▁peace	-9.10853
▁liberal	-9.11032
ally	-9.11167
▁caus	-9.11344
▁growth	-9.1136
▁revolution	-9.11481
▁web	-9.11788
▁musical	-9.11947
▁big	-9.12164
▁gave	-9.12229
▁effective	-9.12464
▁scale	-9.12589
▁kind	-9.1262
▁relations	-9.12862
▁ground	-9.12943
▁bit	-9.12957
ance	-9.12987
▁longer	-9.13289
▁race	-9.13383
▁composer	-9.13443
▁matter	-9.13489
▁rest	-9.13521
▁provid	-9.13649
▁sun	-9.13686
▁etc	-9.13711
▁better	-9.14213
▁mark	-9.14291
▁security	-9.14403
▁ten	-9.1457
▁founded	-9.14636
▁richard	-9.14664
▁acid	-9.14708
ty	-9.14858
▁storie	-9.14969
▁money	-9.14988
▁alternative	-9.1505
▁average	-9.15271
▁replac	-9.15316
▁actress	-9.15426
▁spain	-9.15426
▁mind	-9.15456
▁communication	-9.15524
▁larger	-9.15723
▁muslim	-9.15804
▁names	-9.15816
▁date	-9.15824
▁oil	-9.15861
▁active	-9.16072
▁points	-9.1619
▁file	-9.16215
▁laws	-9.16266
▁holy	-9.16338
▁wife	-9.16376
x	-9.16484
▁volume	-9.16486
▁christ	-9.16636
▁politics	-9.16659
▁grow	-9.16747
▁gas	-9.16766
▁iii	-9.16805
▁dutch	-9.16856
▁front	-9.16883
haps	-9.16887
▁edition	-9.16978
▁parties	-9.17001
▁measure	-9.17024
▁document	-9.17268
▁congress	-9.1728
▁fall	-9.17359
▁episode	-9.17383
▁formal	-9.17461
▁quick	-9.17563
▁library	-9.17578
already	-9.1765
▁seat	-9.1766
▁metal	-9.17752
▁moon	-9.17781
▁professional	-9.17878
▁ask	-9.17893
▁queen	-9.17929
▁am	-9.17946
▁health	-9.17956
▁requir	-9.18157
▁location	-9.1818
ian	-9.18469
▁mention	-9.18647
▁map	-9.18682
▁mary	-9.18753
▁michael	-9.18754
▁whole	-9.18784
▁subsequent	-9.18792
▁sexual	-9.18849
▁latter	-9.19285
▁san	-9.1932
▁agreement	-9.19485
▁rare	-9.19598
▁pressure	-9.19698
▁sources	-9.19703
▁hall	-9.19748
▁status	-9.19752
▁minor	-9.19836
▁district	-9.19874
▁argument	-9.20075
▁communist	-9.20122
▁tv	-9.20377
▁deal	-9.20443
▁regular	-9.20475
▁translation	-9.20503
▁le	-9.20512
▁el	-9.20517
▁instance	-9.20618
▁q	-9.20669
▁creation	-9.2067
▁remained	-9.21053
▁don	-9.2115
▁string	-9.21211
▁museum	-9.21346
▁keep	-9.21372
▁asia	-9.21409
▁institute	-9.21502
▁treaty	-9.21632
▁centre	-9.21653
▁di	-9.21675
▁whom	-9.21721
▁rome	-9.21728
▁primar	-9.21745
▁user	-9.21967
▁rise	-9.22021
nough	-9.22056
▁conflict	-9.22073
▁magazine	-9.22124
▁marri	-9.22135
▁lack	-9.22148
▁bill	-9.22154
▁digital	-9.22181
▁campaign	-9.22406
▁collection	-9.22454
▁literature	-9.2248
▁memory	-9.22582
▁medical	-9.22735
▁orthodox	-9.2274
▁louis	-9.22854
▁birth	-9.22932
▁basis	-9.23042
▁alexander	-9.23089
▁jesu	-9.23092
▁tend	-9.2326
▁gold	-9.23429
▁divid	-9.23569
▁analysi	-9.23599
▁ital	-9.23623
▁letters	-9.23923
▁host	-9.23941
▁electronic	-9.24028
▁signal	-9.24167
▁appoint	-9.24201
▁visit	-9.243
▁destroy	-9.24365
▁street	-9.24388
▁mac	-9.24459
▁piece	-9.24539
▁joseph	-9.24582
▁los	-9.24641
▁sent	-9.24813
▁property	-9.24901
ley	-9.24946
▁democratic	-9.25
▁know	-9.25024
▁child	-9.25231
▁import	-9.25466
▁approximate	-9.25509
▁drive	-9.25535
▁washington	-9.25571
▁approach	-9.25615
▁focus	-9.25705
▁dark	-9.25923
▁grand	-9.26443
▁baseball	-9.26519
▁operation	-9.26609
men	-9.26728
▁deep	-9.26738
▁poor	-9.26785
▁universe	-9.26797
▁environment	-9.26921
▁agree	-9.27189
▁daughter	-9.27419
▁easi	-9.27433
▁dr	-9.2773
▁constant	-9.27754
▁square	-9.2777
less	-9.27811
▁freedom	-9.27851
▁becomes	-9.27911
▁explain	-9.27954
▁write	-9.28128
▁notable	-9.28183
▁students	-9.28232
▁round	-9.28295
▁construction	-9.28397
▁thousand	-9.28483
▁highest	-9.28485
▁hit	-9.28936
▁fair	-9.28953
▁argue	-9.29106
▁lines	-9.29231
▁likely	-9.29332
▁ocean	-9.29377
▁prince	-9.29702
▁slow	-9.2978
▁marriage	-9.29801
▁port	-9.29981
ary	-9.30017
▁ice	-9.30039
▁smith	-9.30143
▁dispute	-9.30193
▁defense	-9.30228
▁nuclear	-9.30295
▁pope	-9.30537
▁secret	-9.30617
▁authorit	-9.30879
▁chang	-9.30955
▁bbc	-9.31014
▁except	-9.31039
▁elections	-9.31152
▁report	-9.31267
▁results	-9.31483
▁makes	-9.31555
▁receive	-9.31729
▁direction	-9.32074
▁windows	-9.32125
▁sex	-9.32163
u	-9.3235
▁mission	-9.32354
▁distance	-9.32467
▁woman	-9.32547
▁fund	-9.32561
▁conservative	-9.32563
▁existence	-9.3257
▁hold	-9.32616
▁committee	-9.32618
▁solution	-9.32675
▁review	-9.32763
▁response	-9.32789
▁functions	-9.32896
▁think	-9.32986
▁immediate	-9.33011
▁categor	-9.33133
▁heavy	-9.33239
▁assembly	-9.33317
▁brown	-9.33336
▁reaction	-9.33468
▁road	-9.33502
▁appearance	-9.33614
▁philosopher	-9.33635
▁equation	-9.33749
▁statement	-9.33868
▁http	-9.33975
▁numerous	-9.34089
▁scot	-9.34107
▁situation	-9.34197
▁behind	-9.34203
▁win	-9.34358
▁unlike	-9.34492
▁taking	-9.34642
▁travel	-9.34658
▁operating	-9.34663
▁launch	-9.347
▁address	-9.34706
▁break	-9.34782
▁content	-9.34814
▁universal	-9.34886
▁airport	-9.34897
▁decade	-9.35124
▁fail	-9.35476
▁paris	-9.35492
▁treat	-9.35541
▁reported	-9.35675
▁heat	-9.35687
▁historian	-9.35706
▁generation	-9.35709
▁mathematic	-9.35721
ive	-9.35761
▁net	-9.35884
▁guide	-9.35898
▁hebrew	-9.3593
▁majorit	-9.35999
▁primaril	-9.36026
▁egypt	-9.36035
▁treatment	-9.36053
▁troops	-9.36319
▁something	-9.36339
▁apple	-9.36358
▁aspect	-9.36572
▁potential	-9.36573
▁police	-9.3665
▁carbon	-9.36731
▁internal	-9.36842
▁search	-9.36869
▁electric	-9.36892
▁frac	-9.36974
▁nor	-9.36975
▁intend	-9.36979
▁characteristic	-9.36984
▁running	-9.37042
wise	-9.37055
▁victor	-9.37072
▁scene	-9.37093
▁governor	-9.37168
ought	-9.37198
▁tri	-9.37582
▁essential	-9.37791
▁faith	-9.37792
▁demand	-9.37865
▁dance	-9.37875
▁duke	-9.3788
▁bible	-9.37906
▁department	-9.37984
▁martin	-9.37998
▁table	-9.38132
▁calendar	-9.38398
▁nobel	-9.38403
▁technical	-9.3863
▁share	-9.38677
▁paper	-9.38808
▁target	-9.38817
▁distribution	-9.38996
▁serious	-9.39055
▁climate	-9.39236
▁motion	-9.39359
th	-9.3936
▁industrial	-9.39377
▁ship	-9.39433
k	-9.39484
▁context	-9.39533
▁spirit	-9.3956
▁oppos	-9.396
▁lived	-9.39605
▁mi	-9.39607
▁protect	-9.39624
▁sir	-9.39658
▁algorithm	-9.39695
ine	-9.39761
▁engineering	-9.39822
▁extensive	-9.39837
▁bridge	-9.39976
▁avoid	-9.40018
▁institution	-9.40169
▁introduction	-9.40265
▁involve	-9.40306
▁records	-9.40319
▁dialect	-9.40321
▁bring	-9.40649
▁quite	-9.40667
▁politician	-9.40746
▁critical	-9.4091
▁count	-9.40942
▁soldier	-9.40993
▁publication	-9.4124
▁proposed	-9.41351
▁contemporar	-9.4136
▁summer	-9.41431
▁rapid	-9.41544
▁reading	-9.4155
▁heart	-9.42095
▁chicago	-9.42282
▁propertie	-9.42379
▁via	-9.42383
▁commission	-9.42395
▁apparent	-9.42404
▁compani	-9.4243
▁exchange	-9.4246
▁debate	-9.42488
▁rank	-9.42534
▁evolution	-9.42604
▁particle	-9.43028
▁mathematical	-9.43121
▁obtain	-9.4315
▁polish	-9.43155
▁experiment	-9.43213
▁navy	-9.43355
▁disease	-9.43456
▁centuri	-9.43586
▁cold	-9.43592
▁takes	-9.4385
▁sequence	-9.43896
▁unique	-9.43969
▁believ	-9.43983
▁journal	-9.44064
▁connection	-9.44296
▁hundred	-9.44334
▁judge	-9.4436
▁labour	-9.44432
▁ability	-9.44446
▁usa	-9.44523
▁convention	-9.44555
▁transport	-9.44559
▁flight	-9.44571
▁met	-9.44598
▁fast	-9.44665
▁cut	-9.4476
▁billion	-9.44808
▁plan	-9.4483
▁ethnic	-9.44915
▁indicate	-9.44927
▁spread	-9.4509
▁monarch	-9.45129
▁appli	-9.45168
▁multiple	-9.45338
▁van	-9.45382
▁deriv	-9.45409
▁featur	-9.45451
▁operations	-9.45558
▁draw	-9.45582
▁medicine	-9.45745
▁branch	-9.4578
▁aid	-9.45862
▁www	-9.45947
▁controll	-9.46097
▁speech	-9.46139
▁minute	-9.46202
▁carry	-9.46252
▁tree	-9.46312
▁trial	-9.46316
▁financial	-9.46386
▁brain	-9.46408
▁component	-9.46449
▁store	-9.46635
▁iron	-9.46919
▁executive	-9.471
▁face	-9.47294
▁display	-9.47669
▁respect	-9.47868
▁notes	-9.47925
▁affair	-9.4801
▁necessar	-9.48011
▁management	-9.48143
▁cells	-9.48194
▁administration	-9.4847
▁symbol	-9.48494
▁tour	-9.48629
▁format	-9.48675
▁master	-9.48712
▁et	-9.48762
▁horse	-9.48782
▁prior	-9.49157
▁card	-9.49655
▁frank	-9.49866
▁global	-9.49997
▁physics	-9.50079
▁miles	-9.50226
▁pro	-9.50291
▁export	-9.50414
te	-9.50478
▁officer	-9.50737
▁message	-9.50802
▁track	-9.50816
▁von	-9.50853
▁sold	-9.50871
▁jean	-9.50995
▁loss	-9.51042
▁reject	-9.51051
▁labor	-9.51064
▁try	-9.51085
▁justice	-9.51139
ability	-9.5122
▁conduct	-9.51295
▁parent	-9.5134
▁arts	-9.5135
▁phase	-9.51426
▁beyond	-9.51475
▁songs	-9.51515
▁enem	-9.51552
▁define	-9.51604
▁intelligence	-9.51614
▁edward	-9.51658
ment	-9.51692
▁distinguish	-9.51733
▁refers	-9.51791
ization	-9.51872
▁doctor	-9.51882
▁vehicle	-9.51883
▁why	-9.51934
g	-9.52179
▁cycle	-9.52267
▁nd	-9.52281
▁description	-9.52429
or	-9.52456
▁logic	-9.52549
▁corporation	-9.52567
▁fuel	-9.52698
▁reduc	-9.5286
▁weight	-9.52887
▁compar	-9.53007
▁ultimate	-9.53057
▁discussion	-9.53059
where	-9.53121
▁theories	-9.53248
▁genetic	-9.53276
▁murder	-9.53356
▁damage	-9.53492
▁notabl	-9.53502
▁occurr	-9.53523
▁architecture	-9.536
▁opposition	-9.53622
▁musician	-9.5364
▁construct	-9.53662
▁proper	-9.53698
▁guitar	-9.53793
▁foundation	-9.53866
▁rich	-9.53913
▁select	-9.53996
▁correct	-9.54062
▁usage	-9.54075
▁super	-9.54171
▁criticism	-9.54244
▁brief	-9.54259
▁imperial	-9.54422
▁temple	-9.54444
▁valley	-9.54469
▁mountain	-9.54527
▁pacific	-9.54539
ar	-9.54584
▁shot	-9.54622
▁ch	-9.54636
▁defeat	-9.54718
▁comes	-9.54735
▁plann	-9.54738
▁ca	-9.54851
▁instruction	-9.54859
▁ray	-9.54867
▁aim	-9.54941
▁broad	-9.55057
▁stone	-9.55116
▁protein	-9.55277
▁powerful	-9.55357
▁news	-9.55367
▁quality	-9.55671
reece	-9.55741
▁contrast	-9.55751
▁equivalent	-9.55771
▁bay	-9.55883
▁boy	-9.55893
▁arab	-9.56362
▁regional	-9.56404
▁advance	-9.56415
▁train	-9.56458
▁convert	-9.56463
▁users	-9.56531
ers	-9.56548
▁virtual	-9.56556
▁newspaper	-9.56695
▁inter	-9.56696
▁fourth	-9.56708
▁die	-9.56745
el	-9.56932
▁reflect	-9.56964
▁identit	-9.57042
▁reign	-9.57126
▁interpretation	-9.5728
▁bar	-9.57337
▁sub	-9.574
aught	-9.57477
▁settlement	-9.57487
ie	-9.57494
▁print	-9.57586
▁decision	-9.5765
▁biograph	-9.57657
▁polan	-9.57721
f	-9.57881
▁contract	-9.5789
▁becoming	-9.57933
▁foot	-9.58022
▁flag	-9.58126
▁agent	-9.58189
▁encyclopedia	-9.58213
▁crown	-9.58234
▁voice	-9.58443
▁credit	-9.58503
▁combination	-9.58525
▁shows	-9.58599
▁heavi	-9.58635
▁compos	-9.587
▁teaching	-9.58718
▁honor	-9.58874
▁cup	-9.5889
▁electron	-9.58916
▁mount	-9.5896
▁winter	-9.58981
▁contact	-9.59009
▁combin	-9.59109
▁declar	-9.59163
▁sports	-9.59223
▁controvers	-9.59299
▁pay	-9.5931
▁org	-9.59356
▁rough	-9.59403
▁zone	-9.59427
▁forest	-9.59469
▁sort	-9.59481
▁shape	-9.59494
▁netherland	-9.59669
▁protocol	-9.5967
▁critics	-9.59671
▁moral	-9.59678
▁wall	-9.59737
▁meeting	-9.59785
▁positive	-9.59838
▁none	-9.59842
▁representative	-9.59897
▁conference	-9.599
▁arabic	-9.59944
▁operate	-9.60003
▁useful	-9.60133
▁molecule	-9.60333
▁oxford	-9.60482
▁chapter	-9.60557
▁supreme	-9.60558
▁iv	-9.60572
▁reduce	-9.60614
▁negative	-9.60644
▁pair	-9.60666
▁training	-9.60789
▁slight	-9.60845
▁domain	-9.60856
▁moving	-9.60866
▁inside	-9.61055
ium	-9.61172
▁impact	-9.61302
re	-9.61302
▁candidate	-9.61306
▁arthur	-9.61327
▁responsibl	-9.61381
▁behavior	-9.6145
▁kong	-9.6149
▁berlin	-9.61578
▁layer	-9.6159
▁poem	-9.61766
▁comic	-9.61795
▁cambridge	-9.61827
▁upper	-9.61834
▁competition	-9.61977
▁moment	-9.62033
▁doctrine	-9.62052
what	-9.62126
▁islamic	-9.62169
▁scholars	-9.62219
▁hill	-9.62229
▁hop	-9.62269
▁risk	-9.62271
▁compound	-9.62279
▁expression	-9.62302
▁gun	-9.62418
▁mexico	-9.6243
▁protection	-9.62441
▁inde	-9.62507
▁tax	-9.62523
▁powers	-9.62661
▁hot	-9.62842
▁else	-9.62859
▁distinct	-9.62935
▁wood	-9.62965
▁fish	-9.63113
▁stars	-9.63155
▁railway	-9.6327
▁choice	-9.63325
▁bus	-9.63392
▁leaders	-9.63398
▁let	-9.63469
▁prominent	-9.63495
▁bad	-9.63577
▁respective	-9.63582
▁disk	-9.63664
▁remov	-9.6367
▁going	-9.63778
▁permanent	-9.63802
▁academ	-9.63805
▁formula	-9.63818
▁linear	-9.63915
▁employ	-9.64005
▁ways	-9.6405
▁income	-9.64164
▁recording	-9.64245
▁advantage	-9.64255
▁ma	-9.64356
▁stop	-9.64373
▁possibl	-9.64374
▁resulting	-9.64426
▁urban	-9.64437
▁legend	-9.64462
▁connect	-9.64758
▁circuit	-9.64804
▁succeed	-9.64804
▁models	-9.64899
▁geography	-9.64962
▁classic	-9.64987
▁decided	-9.64992
▁golden	-9.65036
▁opponent	-9.65192
▁suffer	-9.65257
▁seek	-9.65302
▁village	-9.65393
▁families	-9.65584
▁ships	-9.65589
▁student	-9.65646
▁fundamental	-9.65669
▁formation	-9.65707
▁pure	-9.65727
▁dna	-9.65827
p	-9.65864
na	-9.66071
▁producer	-9.66119
▁box	-9.66167
▁drug	-9.66482
▁match	-9.66535
▁collect	-9.66672
▁quant	-9.66882
▁retain	-9.66911
▁equipment	-9.66998
▁announc	-9.67213
age	-9.6742
▁sell	-9.6745
▁answer	-9.67475
▁invasion	-9.67634
▁counter	-9.67642
▁engineer	-9.67799
▁jack	-9.67804
▁estimate	-9.6796
▁mere	-9.6798
▁computers	-9.68197
▁medieval	-9.68273
▁studio	-9.6843
▁vowel	-9.68443
▁occasional	-9.68553
▁bass	-9.6868
▁feet	-9.68697
▁meet	-9.68887
theles	-9.68903
▁understanding	-9.68927
▁presence	-9.68999
▁perfect	-9.69127
▁deliver	-9.69149
▁multi	-9.6916
▁attend	-9.6942
▁variable	-9.69427
▁substance	-9.69565
▁austria	-9.69622
▁sister	-9.69743
▁islam	-9.6975
▁fear	-9.69824
▁vi	-9.69862
▁friends	-9.69907
▁alphabet	-9.69908
▁background	-9.69909
▁sector	-9.70056
▁strip	-9.70075
▁alone	-9.70092
▁holiday	-9.70137
▁stock	-9.70321
▁price	-9.70347
▁phrase	-9.70386
▁adult	-9.7054
▁edit	-9.70542
▁giv	-9.70566
▁nothing	-9.7098
▁finish	-9.71025
▁domestic	-9.71037
▁tower	-9.71053
▁recogniz	-9.71076
▁govern	-9.71099
▁sum	-9.71199
▁audio	-9.71208
▁practical	-9.71267
▁exception	-9.71267
▁theorem	-9.71369
▁rd	-9.71375
▁reveal	-9.71424
▁broadcast	-9.71539
▁micro	-9.71875
▁benefit	-9.72371
▁civilization	-9.72389
▁step	-9.72428
▁mm	-9.72432
▁goal	-9.72489
▁argu	-9.72511
▁ring	-9.72647
▁portugues	-9.72675
▁founder	-9.72704
▁patient	-9.72711
▁partial	-9.7275
▁killing	-9.72785
▁picture	-9.72885
▁expected	-9.72953
▁lincoln	-9.73038
▁begin	-9.7305
▁favor	-9.73132
▁secretary	-9.73136
▁composition	-9.73151
▁principal	-9.73157
▁fans	-9.73157
▁unknown	-9.73209
▁israeli	-9.73271
▁finland	-9.73379
▁carri	-9.73406
▁identifie	-9.73433
▁talk	-9.73483
▁currenc	-9.73629
▁appeal	-9.73713
▁fight	-9.73763
▁judaism	-9.73798
▁tell	-9.73856
▁variant	-9.73884
▁glass	-9.73948
▁wing	-9.73949
▁friend	-9.73952
▁gdp	-9.74065
▁advanc	-9.74121
▁attention	-9.74137
▁flow	-9.7425
▁register	-9.74311
▁representation	-9.74363
▁enjoy	-9.74393
▁mathematician	-9.74417
▁setting	-9.74612
▁kings	-9.74613
▁apollo	-9.74622
▁rais	-9.74663
▁severe	-9.74678
▁citizens	-9.74813
ft	-9.74854
▁priest	-9.7499
▁differ	-9.75002
▁grant	-9.75045
▁standards	-9.75229
▁copyright	-9.7525
▁hero	-9.75257
▁churche	-9.75268
▁portion	-9.7545
▁item	-9.75488
▁stand	-9.75505
▁democrac	-9.75681
▁controversial	-9.75683
▁output	-9.76032
▁fields	-9.76072
▁literar	-9.76083
▁database	-9.76117
▁directed	-9.76216
▁expansion	-9.76334
▁environmental	-9.76337
▁jerusalem	-9.76461
▁error	-9.76461
▁winning	-9.7648
▁connected	-9.76572
▁austrian	-9.76575
▁license	-9.76585
▁parallel	-9.76598
▁bishop	-9.76633
▁quarter	-9.76642
▁cd	-9.7666
▁semi	-9.76726
▁iraq	-9.76829
▁solid	-9.76973
▁planet	-9.77056
▁workers	-9.7718
▁inspir	-9.77201
▁build	-9.77232
▁stay	-9.7725
▁hands	-9.77282
▁combat	-9.77329
▁constitutional	-9.77428
▁protestant	-9.77455
more	-9.77528
▁entry	-9.77686
▁dollar	-9.7769
▁determine	-9.77814
▁fighting	-9.77969
▁jazz	-9.78043
▁criminal	-9.78055
▁recover	-9.78133
▁daily	-9.78233
▁bush	-9.78244
▁persian	-9.78254
▁ended	-9.78316
▁atlantic	-9.78323
▁organizations	-9.7836
▁forward	-9.78368
▁frequency	-9.78404
▁jones	-9.78442
▁sets	-9.78449
▁bond	-9.78467
▁interview	-9.78552
▁albert	-9.78702
▁follows	-9.78736
▁hydrogen	-9.7876
▁texas	-9.78842
▁task	-9.78842
▁senate	-9.78933
▁supply	-9.7896
▁begins	-9.79099
▁mental	-9.79126
▁dynasty	-9.79138
spoken	-9.79146
▁scientists	-9.79161
▁satellite	-9.79201
▁importance	-9.79216
ology	-9.79235
▁spiritual	-9.79283
▁organiz	-9.79304
v	-9.79496
▁desert	-9.79496
▁scott	-9.79556
▁care	-9.7959
▁shift	-9.79636
▁zealand	-9.79645
▁implement	-9.79712
▁room	-9.79805
▁hong	-9.79879
▁gospel	-9.79916
▁opinion	-9.79916
sis	-9.79947
▁wealth	-9.80131
▁classe	-9.80314
▁comput	-9.80345
▁mythology	-9.80382
▁bob	-9.80452
▁failure	-9.80459
▁instrument	-9.80544
▁views	-9.8061
▁os	-9.8061
▁academic	-9.80637
▁presidential	-9.80661
▁truth	-9.80721
▁crew	-9.80745
▁afghanistan	-9.80821
▁cards	-9.80843
▁mov	-9.80848
▁slave	-9.80888
▁nazi	-9.8098
▁camp	-9.81025
▁fame	-9.81108
▁fell	-9.81273
▁meant	-9.81321
▁spring	-9.81346
▁boston	-9.81347
▁instruments	-9.81374
▁du	-9.81375
▁screen	-9.81462
▁specifical	-9.81526
▁observ	-9.8155
▁dictionary	-9.81646
▁dog	-9.81688
▁missile	-9.81738
▁fixed	-9.81741
▁wild	-9.81802
▁script	-9.81826
▁continuous	-9.81864
▁republican	-9.81986
▁manager	-9.82001
▁lee	-9.82005
▁sweden	-9.82038
▁violenc	-9.82047
ius	-9.8216
▁closed	-9.82298
▁professor	-9.82352
▁express	-9.8243
▁block	-9.82472
▁essay	-9.82635
▁twenty	-9.8275
▁interface	-9.82773
▁agricultur	-9.82846
▁understand	-9.82908
▁winner	-9.8295
▁root	-9.8295
▁determined	-9.82973
▁orbit	-9.82982
▁leav	-9.83055
▁algebra	-9.83132
▁mode	-9.8317
▁extra	-9.83225
▁label	-9.83262
one	-9.83404
▁hence	-9.83452
▁fine	-9.83544
▁edge	-9.83561
▁evil	-9.83592
▁ibm	-9.83787
▁jackson	-9.83837
▁chain	-9.83837
▁roll	-9.83868
▁injur	-9.83992
▁leadership	-9.84064
▁leave	-9.84071
▁occupie	-9.8422
▁extension	-9.8426
▁fan	-9.84512
▁marked	-9.84569
▁writings	-9.84583
▁alcohol	-9.84674
▁split	-9.84712
cy	-9.8476
▁progress	-9.84769
▁crime	-9.84836
▁testament	-9.84905
▁hungary	-9.84913
▁supporter	-9.84943
▁prov	-9.84986
▁wave	-9.85095
▁resident	-9.85184
▁captain	-9.8519
▁census	-9.85207
▁painting	-9.8527
▁disorder	-9.8538
▁ex	-9.85434
▁commander	-9.85471
kept	-9.85537
▁discovery	-9.85577
▁min	-9.85601
▁organism	-9.85601
▁annual	-9.85616
▁actions	-9.8573
▁switch	-9.85796
▁teacher	-9.8604
▁wear	-9.86044
▁pp	-9.86084
▁mountains	-9.86091
▁walk	-9.86229
▁mechanism	-9.86242
▁reality	-9.86453
▁revolutionar	-9.86475
▁ni	-9.86529
▁fill	-9.86556
▁del	-9.86599
▁wikipedia	-9.86709
▁der	-9.86779
▁radical	-9.86821
▁told	-9.86925
▁egyptian	-9.86937
▁christmas	-9.87012
▁pop	-9.87059
▁opening	-9.87071
▁pattern	-9.87107
▁verb	-9.87152
▁vice	-9.87159
▁server	-9.87221
▁eat	-9.87255
▁core	-9.87332
▁staff	-9.8738
▁apply	-9.87392
▁steel	-9.8746
ized	-9.87556
▁plane	-9.87574
▁intellectual	-9.87594
▁administrative	-9.87594
▁spent	-9.87596
▁columbia	-9.87683
▁alliance	-9.878
▁distinction	-9.87814
▁says	-9.87841
▁cast	-9.87863
▁statistics	-9.87919
▁arms	-9.87925
▁dut	-9.88085
ard	-9.88113
▁pilot	-9.88183
▁sport	-9.88317
▁bodie	-9.88321
▁audience	-9.8838
▁scottis	-9.88389
▁grew	-9.88392
▁folk	-9.88528
▁height	-9.88536
▁hardware	-9.88577
▁photograph	-9.88706
▁cat	-9.88716
▁pronounced	-9.88741
▁electrical	-9.88864
▁learning	-9.88889
▁vietnam	-9.88966
▁fictional	-9.88973
od	-9.89016
▁strength	-9.8904
▁topics	-9.89123
▁defeated	-9.8917
▁comics	-9.89189
▁desire	-9.89364
▁ratio	-9.89399
▁cable	-9.8943
▁mr	-9.89439
▁heaven	-9.89464
▁linux	-9.89472
▁discuss	-9.89505
▁strike	-9.89549
▁strict	-9.89562
▁chosen	-9.89617
▁goes	-9.89624
▁abandon	-9.89856
▁exclusive	-9.89865
▁requirement	-9.89882
▁hear	-9.89919
▁drink	-9.89922
▁da	-9.89955
▁patent	-9.89958
▁swed	-9.89984
▁angeles	-9.90025
▁processes	-9.90152
▁fantasy	-9.90159
▁literal	-9.90179
▁throw	-9.9019
▁vol	-9.90282
▁bell	-9.90356
▁surviv	-9.90361
▁surrounding	-9.90416
▁absolute	-9.90478
▁christians	-9.905
▁refus	-9.90543
▁asian	-9.90707
▁invent	-9.90763
▁transfer	-9.90837
▁firm	-9.90842
side	-9.90872
▁decline	-9.90902
▁hindu	-9.90998
▁myth	-9.91057
▁alleged	-9.9112
▁olympic	-9.91163
▁relation	-9.91177
▁vast	-9.9124
▁fashion	-9.91294
▁joint	-9.91331
▁manner	-9.91332
▁request	-9.91359
▁eu	-9.91375
▁resolution	-9.91464
▁starr	-9.91503
▁philosophical	-9.91569
▁resistance	-9.9159
▁wind	-9.91655
▁brazil	-9.91661
▁jpg	-9.91668
▁sentence	-9.91671
▁depict	-9.9175
▁proof	-9.9178
▁expressed	-9.91831
▁extent	-9.9187
▁input	-9.91874
▁saying	-9.91891
▁couple	-9.91894
▁diamond	-9.9197
▁save	-9.91989
▁suit	-9.92049
▁substantial	-9.92082
▁tribes	-9.92116
▁mobile	-9.92255
▁physicist	-9.92276
▁happen	-9.92458
▁garden	-9.92616
▁teams	-9.92632
▁observation	-9.92643
▁procedure	-9.92685
▁carrier	-9.92746
▁false	-9.92795
▁cook	-9.93134
▁holds	-9.93204
▁investment	-9.9324
▁facilit	-9.93323
▁reports	-9.93324
▁buildings	-9.93354
▁achieve	-9.93379
son	-9.93381
▁lives	-9.93388
ford	-9.93403
▁iran	-9.93409
▁fifth	-9.93424
▁translat	-9.93438
▁flat	-9.93486
▁divine	-9.93543
▁transportation	-9.93637
▁comment	-9.9377
▁pc	-9.93801
▁considerabl	-9.93809
▁socialist	-9.93811
▁implementation	-9.9394
▁got	-9.93954
▁johnson	-9.93995
ever	-9.94206
▁liquid	-9.94216
▁chemistry	-9.94263
▁elizabeth	-9.94337
▁texts	-9.94365
▁custom	-9.94385
shire	-9.94445
▁transform	-9.94448
▁replace	-9.94467
▁painter	-9.9448
▁hope	-9.94564
▁feel	-9.94923
▁operator	-9.94966
▁atoms	-9.95186
▁festival	-9.9524
▁node	-9.95344
▁hungarian	-9.95384
▁concentration	-9.95392
▁ft	-9.95406
▁telephone	-9.95491
▁reserve	-9.95514
to	-9.95691
▁opened	-9.957
▁bowl	-9.95712
▁gay	-9.95728
▁circle	-9.95753
▁inhabitant	-9.95809
▁medium	-9.95812
▁naval	-9.95916
▁korea	-9.96021
▁percent	-9.96117
▁accurate	-9.96123
▁supposed	-9.96125
▁interpret	-9.96127
▁classification	-9.96133
▁images	-9.96182
▁runs	-9.96238
▁felt	-9.9635
▁easy	-9.96575
▁eye	-9.966
▁route	-9.96654
▁wales	-9.96772
▁establishment	-9.96796
▁rail	-9.968
▁rose	-9.9706
▁cool	-9.97177
▁arrest	-9.97294
▁prove	-9.97335
ra	-9.97359
bury	-9.97463
▁comedy	-9.97587
▁palace	-9.97619
▁sufficient	-9.97622
▁jordan	-9.97714
▁capacit	-9.97716
▁jurisdiction	-9.97725
▁organisation	-9.97725
▁belong	-9.97769
▁assum	-9.97772
▁improv	-9.97926
▁storage	-9.97945
▁balance	-9.98056
▁coach	-9.98059
▁colon	-9.98111
▁victim	-9.98266
▁cit	-9.98317
▁chance	-9.98395
▁narrow	-9.98403
▁wherea	-9.98445
ything	-9.98469
▁magnetic	-9.985
▁defend	-9.98557
b	-9.98649
▁marine	-9.9867
▁profit	-9.98725
▁salt	-9.98764
▁index	-9.98771
▁guard	-9.98821
▁watch	-9.98825
spread	-9.98831
time	-9.98885
▁giant	-9.98921
▁binary	-9.98963
▁expert	-9.99026
▁transition	-9.99063
▁manag	-9.99085
▁escape	-9.99193
▁concert	-9.99261
▁sample	-9.99323
▁michigan	-9.99354
▁mixed	-9.99398
▁repeated	-9.99435
▁threat	-9.99439
▁huge	-9.99451
▁throne	-9.99466
▁passage	-9.99486
▁consequence	-9.99683
▁solar	-9.99757
▁integer	-9.99793
▁finding	-9.99835
▁universit	-9.99865
▁mail	-9.99889
▁standing	-9.99912
▁challenge	-9.99948
▁bottom	-10.0002
▁motor	-10.0008
▁commonwealth	-10.0023
▁density	-10.005
▁traffic	-10.0053
▁influential	-10.0057
▁legislative	-10.0057
▁platform	-10.0057
▁pitch	-10.0059
▁castle	-10.006
▁te	-10.0062
▁monster	-10.0068
▁coming	-10.0069
▁dry	-10.0069
▁someone	-10.0075
▁genre	-10.0078
▁logical	-10.0083
▁cars	-10.0096
ne	-10.0097
▁hitler	-10.0101
▁ending	-10.0106
▁pick	-10.0111
▁francis	-10.0114
▁silver	-10.0114
▁worldwide	-10.0115
▁alpha	-10.0115
▁gradual	-10.0124
▁struggle	-10.0131
▁opera	-10.0132
▁microso	-10.014
▁massive	-10.016
▁clock	-10.0162
▁affect	-10.0163
▁artificial	-10.0168
▁ran	-10.0172
▁driver	-10.0178
▁gulf	-10.018
▁en	-10.0184
▁achiev	-10.0193
▁granted	-10.0197
▁cult	-10.0207
▁contribut	-10.0207
▁lay	-10.0207
▁minorit	-10.0208
▁visual	-10.021
▁sky	-10.0217
▁grammar	-10.0222
▁trans	-10.0223
▁plus	-10.0231
▁infinite	-10.0232
▁superior	-10.0235
▁celtic	-10.0237
▁possibilit	-10.024
▁agricultural	-10.0241
wood	-10.0243
▁opposite	-10.0247
▁manufacturer	-10.0254
by	-10.0258
▁fleet	-10.0265
am	-10.0273
▁crisi	-10.0274
▁symbols	-10.0276
▁holding	-10.0277
▁jr	-10.0278
▁denmark	-10.0281
▁coin	-10.0282
▁speakers	-10.0282
▁assign	-10.0282
▁dimension	-10.0285
▁nfl	-10.0293
▁consumer	-10.0299
▁biological	-10.0304
▁regime	-10.0315
▁interaction	-10.0316
▁hair	-10.033
▁learn	-10.0339
▁theatre	-10.0342
▁airline	-10.0351
▁path	-10.0354
wv	-10.0355
▁archive	-10.0363
▁plot	-10.0369
▁safety	-10.0373
▁atomic	-10.0377
▁drugs	-10.0377
▁danish	-10.0384
▁championship	-10.0385
▁towns	-10.0387
▁occupation	-10.0387
▁lewis	-10.0395
▁maximum	-10.0396
▁bear	-10.0402
▁processor	-10.0422
▁drawing	-10.0425
▁quantit	-10.0429
▁notion	-10.0439
▁daniel	-10.0455
et	-10.0459
▁score	-10.046
▁job	-10.0462
▁historic	-10.0463
▁logo	-10.0463
▁advocate	-10.0471
▁random	-10.0484
▁peak	-10.0492
▁editor	-10.0494
▁passenger	-10.0498
▁virginia	-10.0499
▁everything	-10.0523
▁derive	-10.0533
▁vision	-10.0534
▁actors	-10.055
▁precise	-10.0557
▁carl	-10.0563
▁fighter	-10.0563
▁caesar	-10.0566
▁unusual	-10.0568
▁adam	-10.0575
▁highway	-10.0575
▁chart	-10.058
ta	-10.0581
▁mechanics	-10.0587
▁vector	-10.0612
▁consonant	-10.0615
▁radiation	-10.0615
que	-10.0624
▁coup	-10.0631
▁emerg	-10.0641
▁darwin	-10.0645
▁emergenc	-10.0648
▁korean	-10.065
▁ministr	-10.0662
▁push	-10.0674
▁stadium	-10.0674
▁depression	-10.0674
▁gene	-10.0676
▁cardinal	-10.0685
▁plans	-10.0699
▁shall	-10.0707
▁biology	-10.071
▁dvd	-10.0713
▁defence	-10.0721
▁comparison	-10.0721
▁lady	-10.0725
▁settl	-10.0729
▁attract	-10.0741
▁saxon	-10.0746
▁prophet	-10.0751
▁tank	-10.0766
▁paid	-10.0772
▁quote	-10.078
▁impossibl	-10.0784
▁improve	-10.0786
▁explanation	-10.0792
▁illinois	-10.0804
▁destruction	-10.0804
▁trad	-10.0805
▁shared	-10.0813
▁newton	-10.0817
▁opportunit	-10.083
▁bomb	-10.0831
▁movements	-10.0845
▁confirm	-10.085
▁rain	-10.0854
▁predict	-10.086
▁soul	-10.087
▁java	-10.0872
▁turkey	-10.0876
▁demographic	-10.0876
▁mechanical	-10.0877
▁molecular	-10.0877
▁yellow	-10.0888
▁originate	-10.09
▁keyboard	-10.09
▁mineral	-10.09
▁andrew	-10.0912
▁frame	-10.0912
▁il	-10.0918
▁hollywood	-10.0925
▁ages	-10.0925
▁sole	-10.0934
▁budget	-10.0936
▁continental	-10.0946
▁serv	-10.0954
▁expanded	-10.0956
▁capabl	-10.0999
▁pakistan	-10.1013
▁harvard	-10.1021
▁magic	-10.1022
▁measurement	-10.1023
▁selection	-10.1025
▁committ	-10.1026
▁jim	-10.1033
▁pictures	-10.1033
▁gender	-10.1036
▁protest	-10.104
▁household	-10.1042
▁goods	-10.1051
▁civilian	-10.1053
▁understo	-10.1054
▁scheme	-10.1065
▁cancer	-10.107
▁doing	-10.1073
▁blues	-10.1075
▁lies	-10.1081
▁stalin	-10.1086
▁html	-10.1087
▁champion	-10.1088
▁fit	-10.1089
▁entit	-10.1089
▁husband	-10.1095
▁assume	-10.1108
▁showing	-10.1109
▁democrat	-10.111
ville	-10.1111
▁hospital	-10.1111
▁batter	-10.1112
▁ottoman	-10.1121
▁skill	-10.1121
▁theme	-10.1124
▁virus	-10.1126
ham	-10.1127
▁stephen	-10.1131
▁clinton	-10.1132
▁appropriate	-10.1136
ist	-10.1138
▁dream	-10.1147
▁francisc	-10.1152
ory	-10.1155
▁alternate	-10.1156
▁captured	-10.1161
▁conventional	-10.1162
▁restrict	-10.1166
▁remove	-10.1172
▁sides	-10.1175
▁li	-10.1176
▁explicit	-10.1181
▁lie	-10.1184
▁exile	-10.1189
▁coalition	-10.1194
▁theoretical	-10.1197
▁interesting	-10.1198
▁attribute	-10.1204
▁exact	-10.1205
ov	-10.1218
▁maps	-10.122
▁projects	-10.1223
▁occasion	-10.1225
▁files	-10.1228
▁leban	-10.1229
▁wish	-10.1242
▁kennedy	-10.1244
▁tools	-10.1244
▁exactly	-10.125
it	-10.1254
▁florida	-10.1257
▁cia	-10.1257
▁renam	-10.1264
▁twelve	-10.1265
ier	-10.1267
▁client	-10.1268
▁cabinet	-10.1268
▁soft	-10.1282
▁functional	-10.1287
▁straight	-10.1291
▁evolv	-10.1292
▁column	-10.1293
▁jersey	-10.1293
▁consistent	-10.1294
▁finite	-10.1307
▁earl	-10.1308
▁alfred	-10.132
▁continent	-10.1326
▁discipline	-10.1328
▁chamber	-10.133
▁mars	-10.133
▁dedicat	-10.133
▁strategy	-10.1331
▁fort	-10.1346
▁copy	-10.1351
▁wars	-10.1372
▁oxygen	-10.1378
▁dominant	-10.1398
▁simon	-10.1404
▁kansa	-10.1407
▁curve	-10.1409
▁guinea	-10.1409
▁overall	-10.141
▁conquer	-10.1419
▁palestinian	-10.142
▁youth	-10.1427
▁fox	-10.1427
▁contest	-10.1445
▁stable	-10.1446
▁vary	-10.1446
▁alli	-10.1459
▁respond	-10.146
▁bound	-10.1465
▁encounter	-10.1471
▁goddess	-10.1471
▁hell	-10.1473
▁declaration	-10.1473
▁incident	-10.1475
▁portugal	-10.1483
▁abuse	-10.1494
▁verse	-10.1495
head	-10.1512
▁modified	-10.1513
▁survey	-10.1521
▁secondar	-10.1521
▁crystal	-10.1524
▁arrived	-10.1527
ner	-10.1528
▁milk	-10.153
▁sin	-10.153
▁ensure	-10.1534
▁colonie	-10.1543
▁ip	-10.1543
▁colonial	-10.1545
▁choose	-10.1548
▁membership	-10.1549
▁disc	-10.156
▁draft	-10.157
▁apart	-10.1571
▁peninsula	-10.1573
▁survive	-10.1577
▁obvious	-10.1586
▁byzantine	-10.1586
▁mathbf	-10.1586
▁recognize	-10.1593
soft	-10.1594
ground	-10.1595
▁tone	-10.1602
▁nam	-10.1602
▁indo	-10.1606
▁philip	-10.1607
▁stream	-10.162
▁identify	-10.1626
▁ago	-10.1629
▁federation	-10.1638
▁scholar	-10.1661
▁twic	-10.1662
▁recognition	-10.1664
▁psychology	-10.1677
▁prison	-10.1677
▁dc	-10.1689
▁descendant	-10.169
▁vocal	-10.1696
▁sharp	-10.1701
▁attach	-10.1713
▁cape	-10.1716
▁davis	-10.172
▁reputation	-10.1729
▁variations	-10.1736
▁moore	-10.1755
▁kg	-10.177
▁responsibilit	-10.1771
▁publishing	-10.1775
▁flying	-10.1776
▁perspective	-10.1782
▁atmosphere	-10.1786
▁canal	-10.1794
▁distributed	-10.1796
au	-10.1798
▁assist	-10.1805
▁arrangement	-10.1808
▁stress	-10.1815
▁incorporat	-10.1822
▁mix	-10.1825
▁trees	-10.1826
▁lot	-10.183
▁tom	-10.1835
▁possession	-10.1836
▁massachusetts	-10.1836
▁regulation	-10.1837
▁authors	-10.1845
▁identical	-10.1848
▁franklin	-10.1848
▁investigation	-10.1849
▁mainstream	-10.1849
▁safe	-10.1851
▁germanic	-10.1856
▁collapse	-10.1857
▁napoleon	-10.1861
▁samuel	-10.1861
▁soil	-10.1867
▁promote	-10.1868
▁expensive	-10.1874
▁howard	-10.1878
▁accus	-10.1879
▁rational	-10.1886
▁douglas	-10.1888
▁ba	-10.1897
▁generat	-10.19
▁conversion	-10.1901
▁preferr	-10.1903
▁researcher	-10.1905
▁electricit	-10.1905
▁cuba	-10.1908
▁tourism	-10.1911
▁prisoner	-10.1914
▁storm	-10.1925
▁remember	-10.1928
▁nickname	-10.1929
ical	-10.194
▁efficient	-10.1941
▁eyes	-10.1941
▁girl	-10.1943
▁economics	-10.1947
▁authoritie	-10.1949
▁creature	-10.1955
▁ne	-10.1961
▁wrong	-10.1967
▁religions	-10.1968
▁karl	-10.1969
▁scor	-10.1974
▁successor	-10.1981
▁probabilit	-10.1984
▁forum	-10.1987
▁czech	-10.1995
▁entitl	-10.1997
▁weak	-10.2004
▁copie	-10.2007
▁necessari	-10.2008
▁dates	-10.201
▁favour	-10.201
▁capture	-10.2031
▁blow	-10.2038
▁orient	-10.2044
▁violent	-10.2049
▁dangerous	-10.2049
▁exercise	-10.2051
▁dynamic	-10.2053
▁burn	-10.2053
▁execut	-10.2056
▁architect	-10.2062
▁abraham	-10.2063
▁pioneer	-10.2063
▁spelling	-10.2067
▁worth	-10.2075
▁weather	-10.2076
▁brand	-10.2081
▁ideal	-10.2084
▁gregor	-10.2091
▁illegal	-10.2103
▁publisher	-10.2112
▁hockey	-10.2117
▁gods	-10.2137
▁aware	-10.2141
▁suicide	-10.2144
▁recipient	-10.2144
▁dominat	-10.2151
▁rac	-10.2154
▁ar	-10.216
▁mayor	-10.2167
▁belgium	-10.2171
▁implie	-10.2171
▁laborator	-10.2171
▁divide	-10.2181
▁assert	-10.2182
▁broke	-10.2185
▁profile	-10.2186
▁acquir	-10.2187
▁georgia	-10.2194
▁analog	-10.2199
▁observer	-10.2205
▁wiki	-10.2206
▁rival	-10.2208
at	-10.2219
ola	-10.2222
▁stat	-10.2223
▁paint	-10.223
▁snow	-10.2234
▁temporar	-10.2251
▁fluid	-10.2254
▁leap	-10.2254
▁uniform	-10.226
▁campus	-10.2265
▁option	-10.2269
▁adams	-10.2271
▁broken	-10.2278
▁session	-10.2281
▁grain	-10.2289
▁estimat	-10.2292
▁detect	-10.2305
gun	-10.2306
▁commentar	-10.2307
▁consciousness	-10.231
▁expand	-10.2311
▁inner	-10.2325
▁blind	-10.2325
▁collective	-10.2341
▁inc	-10.2345
field	-10.2345
▁check	-10.2345
▁cinema	-10.2351
▁affected	-10.2354
▁prayer	-10.2357
▁ordinar	-10.2366
▁faster	-10.237
▁notation	-10.2371
▁intelligent	-10.2379
▁array	-10.2383
▁dimensional	-10.2389
▁alan	-10.239
▁varie	-10.2391
▁manuscript	-10.2392
▁max	-10.2404
▁judicial	-10.2407
▁pull	-10.2412
▁mediterrane	-10.242
▁biblical	-10.2421
▁russell	-10.2421
▁spin	-10.2427
▁serving	-10.2427
▁anglo	-10.2428
▁fruit	-10.2445
▁mike	-10.2446
ma	-10.2448
▁warfar	-10.2456
▁donald	-10.2461
▁worship	-10.2462
▁lunar	-10.2463
▁cuisine	-10.2477
▁fragment	-10.2477
▁courts	-10.2478
▁joe	-10.2482
▁circumstance	-10.2491
▁graphics	-10.25
▁depth	-10.2506
▁velocit	-10.252
▁trace	-10.2527
▁headquarter	-10.2533
▁ben	-10.2542
▁rivers	-10.2545
▁indiana	-10.2559
▁ll	-10.2564
▁parliamentary	-10.2567
▁fresh	-10.2576
▁hotel	-10.2581
▁ha	-10.2582
▁mit	-10.2586
▁ve	-10.2588
▁orchestra	-10.2593
▁musicians	-10.2595
▁dan	-10.2598
▁norwa	-10.2604
▁interior	-10.2605
▁legislation	-10.2605
▁camera	-10.261
▁inventor	-10.2619
▁succession	-10.2625
▁educational	-10.2626
over	-10.2632
▁execution	-10.2632
▁transmission	-10.2633
▁warm	-10.2637
▁diet	-10.2638
▁load	-10.2652
▁follower	-10.2669
▁turkis	-10.2669
▁journey	-10.2676
▁tourist	-10.2677
▁harry	-10.2681
▁sales	-10.2689
▁honour	-10.2691
▁consumption	-10.2691
▁meat	-10.2693
visible	-10.2698
▁rural	-10.2705
▁einstein	-10.2721
▁iso	-10.2721
▁ce	-10.2726
way	-10.2733
▁mouth	-10.2741
▁charter	-10.2744
▁nearb	-10.2747
▁revenue	-10.2749
▁vessel	-10.2749
▁finnish	-10.2749
▁reverse	-10.275
▁conquest	-10.275
▁raise	-10.2766
▁supplie	-10.2778
▁ge	-10.2781
▁earn	-10.2785
▁walter	-10.2785
▁bird	-10.2796
▁manufacturing	-10.2804
▁abstract	-10.2805
▁conclusion	-10.2807
▁roots	-10.2807
▁integral	-10.2809
▁experimental	-10.283
▁portray	-10.2832
▁steve	-10.2832
▁align	-10.2835
▁purchase	-10.284
▁designer	-10.2842
▁rifle	-10.2851
▁inflation	-10.2852
▁ban	-10.2854
▁estate	-10.2855
▁mp	-10.2859
▁proposal	-10.2866
▁plain	-10.2873
▁ministers	-10.2873
la	-10.2879
▁plural	-10.288
▁sam	-10.288
▁blade	-10.2882
▁branches	-10.2892
▁mouse	-10.2907
▁societ	-10.2908
▁laureate	-10.2909
▁hugh	-10.2911
▁buy	-10.2914
▁corresponding	-10.2914
▁filter	-10.2925
▁lose	-10.2933
▁memorial	-10.2935
▁phenomenon	-10.2939
▁indigenous	-10.2939
▁offensive	-10.2939
▁meters	-10.2943
▁wait	-10.2943
▁neutral	-10.2947
▁correspond	-10.2947
▁dependent	-10.2954
▁stands	-10.2963
▁swiss	-10.2969
▁wound	-10.2969
▁atari	-10.2969
▁promise	-10.297
▁calvin	-10.2973
▁denote	-10.2986
▁debt	-10.2988
▁integrat	-10.2999
▁intel	-10.2999
▁patterns	-10.2999
▁generate	-10.3001
▁fellow	-10.3001
▁classified	-10.3002
▁sons	-10.3007
▁saints	-10.302
▁jan	-10.302
▁coordinate	-10.3021
▁onto	-10.3031
▁bah	-10.3031
▁preserv	-10.3032
▁lowest	-10.3033
ni	-10.3035
▁caribbean	-10.3043
▁ruth	-10.3058
▁knight	-10.3062
▁touch	-10.3064
▁journalist	-10.3066
▁si	-10.3067
▁capabilit	-10.3068
▁consisting	-10.3076
▁creator	-10.3077
▁png	-10.3077
▁bright	-10.3078
▁kilometer	-10.3088
▁prices	-10.3096
▁mexican	-10.3106
▁scientist	-10.3109
well	-10.3113
▁emphasis	-10.3115
▁jump	-10.3137
▁resign	-10.3143
▁auto	-10.3144
▁ethics	-10.3148
▁neighbor	-10.3148
▁activist	-10.3149
▁clean	-10.3149
▁basque	-10.3152
▁axis	-10.316
▁documentar	-10.3164
▁solo	-10.3172
▁mar	-10.3177
▁disaster	-10.3178
▁improvement	-10.3179
▁retir	-10.319
▁phone	-10.3193
▁merchant	-10.3193
▁gnu	-10.3203
▁spectrum	-10.3209
▁martial	-10.3209
▁restriction	-10.3211
▁afterward	-10.3214
▁brian	-10.3215
▁door	-10.3216
▁rulers	-10.3219
▁learned	-10.3221
▁infantry	-10.3225
▁leaves	-10.3234
▁explorer	-10.3236
▁berkeley	-10.3239
▁piano	-10.3239
▁agenc	-10.3249
▁minimum	-10.3254
▁mormon	-10.3254
▁promot	-10.3255
▁sword	-10.3263
▁organic	-10.3265
▁knights	-10.3266
▁sugar	-10.3266
▁fossil	-10.3267
▁forth	-10.3267
▁industrie	-10.327
▁complexity	-10.3273
▁polic	-10.3279
ca	-10.328
▁compare	-10.3281
▁pronunciation	-10.3285
ur	-10.3287
▁bce	-10.3289
▁genus	-10.3294
▁birds	-10.3294
▁chess	-10.3297
▁buri	-10.3298
▁indonesia	-10.3305
▁laser	-10.3311
▁capitalism	-10.3311
nyone	-10.3311
▁plays	-10.3315
▁symptom	-10.3315
▁hip	-10.3315
▁norwegian	-10.3315
▁geometry	-10.3316
▁purchas	-10.3316
▁progressive	-10.3317
▁bits	-10.3322
▁adding	-10.3329
▁muscle	-10.3331
▁hole	-10.3333
▁dual	-10.3334
▁measured	-10.3343
▁tool	-10.3346
▁pennsylvania	-10.3346
▁euro	-10.3352
▁houses	-10.3359
▁eric	-10.3362
▁tall	-10.3362
▁muhammad	-10.3377
▁medal	-10.3378
▁notice	-10.3381
▁invention	-10.3382
▁dropp	-10.3394
▁beat	-10.3394
▁cm	-10.3407
▁switzerland	-10.3408
▁orange	-10.3409
▁lands	-10.3427
▁penalt	-10.3431
ship	-10.3443
▁transferr	-10.3449
▁immigrant	-10.3455
▁baltic	-10.3455
▁floor	-10.346
▁ruler	-10.3461
▁exhibit	-10.3468
▁decrease	-10.347
▁corporate	-10.3473
▁doubt	-10.35
▁des	-10.3504
▁coal	-10.3506
ite	-10.3508
▁familiar	-10.351
oxide	-10.3512
▁terminal	-10.3517
▁confuse	-10.352
▁pdf	-10.3522
▁lyrics	-10.3526
▁wilson	-10.3533
▁manchester	-10.3534
▁rebellion	-10.3549
ah	-10.3552
co	-10.3563
▁bruce	-10.3569
▁males	-10.3572
▁spoke	-10.3576
▁batman	-10.3582
▁admiral	-10.3582
▁heritage	-10.3596
▁morning	-10.3597
▁beer	-10.3599
▁residence	-10.3599
▁sunday	-10.361
▁partner	-10.3618
▁maria	-10.3619
▁matters	-10.363
▁graduate	-10.3637
▁shell	-10.3638
▁mississippi	-10.364
▁feeling	-10.3642
▁mc	-10.3649
ro	-10.3656
▁roosevelt	-10.3659
▁argentina	-10.3659
▁compact	-10.366
▁delta	-10.366
▁ohio	-10.3675
▁alexandria	-10.3676
▁objective	-10.3681
▁metre	-10.3681
▁atom	-10.3688
▁photo	-10.3695
▁boat	-10.3696
▁celebrat	-10.3699
▁loop	-10.3708
▁nationalist	-10.3712
▁possess	-10.3712
▁syria	-10.3724
▁crop	-10.3726
▁relativ	-10.3726
▁missouri	-10.3736
▁ill	-10.3736
▁chairman	-10.374
▁voting	-10.3751
▁rising	-10.3758
▁walls	-10.3761
▁angle	-10.3763
▁delay	-10.3766
▁crash	-10.3772
▁assassination	-10.3772
▁cpu	-10.3776
▁ceremon	-10.3787
ka	-10.3787
sistance	-10.379
▁row	-10.3793
▁skin	-10.3796
▁yield	-10.3803
▁pierre	-10.3805
gency	-10.3815
▁moscow	-10.3819
▁physician	-10.3819
▁variation	-10.3827
▁marx	-10.383
▁entertainment	-10.3836
▁pan	-10.3846
▁monitor	-10.3852
▁colour	-10.3854
▁gary	-10.3858
▁bacteria	-10.3868
▁banks	-10.388
▁fr	-10.3894
line	-10.3898
▁beautiful	-10.39
▁terrorist	-10.3902
▁theater	-10.3902
▁khan	-10.3903
▁finance	-10.3905
▁metropolitan	-10.3917
▁columbus	-10.3917
▁tropical	-10.3918
▁baptism	-10.3918
▁boundar	-10.3921
▁constantine	-10.3921
▁iceland	-10.3924
▁fat	-10.3928
▁northwest	-10.3934
town	-10.3935
▁alien	-10.3943
▁luther	-10.3947
▁percentage	-10.395
▁boys	-10.3965
▁cave	-10.3965
▁proclaim	-10.3965
▁closer	-10.3966
▁wire	-10.3971
▁lakes	-10.3975
▁calcul	-10.3979
▁sounds	-10.3982
▁transformation	-10.3985
▁legacy	-10.3986
▁segment	-10.3987
▁wolf	-10.3992
▁guns	-10.3994
▁expos	-10.3994
▁anglican	-10.3998
▁ram	-10.3999
teenth	-10.4011
▁expedition	-10.4015
▁lists	-10.4015
▁downtown	-10.4017
▁accident	-10.4022
▁adaptation	-10.4032
▁constitute	-10.4033
▁encourag	-10.4039
▁mon	-10.4046
▁technologie	-10.4048
▁leg	-10.4055
▁frederick	-10.4064
▁lisp	-10.4069
▁plate	-10.407
▁moderate	-10.4073
▁ka	-10.408
▁economist	-10.4081
▁hunt	-10.4081
▁characteriz	-10.4089
▁macintosh	-10.4097
▁secure	-10.4098
▁mu	-10.41
▁farm	-10.4103
▁comet	-10.4115
▁valid	-10.4126
▁gravit	-10.4126
▁roger	-10.4132
▁marshall	-10.4132
▁employee	-10.4134
▁rang	-10.4141
▁rice	-10.4141
▁mainland	-10.4142
▁wine	-10.4143
▁ancestor	-10.4147
▁bo	-10.415
▁declare	-10.4151
▁shock	-10.4155
▁attribut	-10.4163
▁subset	-10.4165
▁chile	-10.4165
▁prepared	-10.4167
▁specification	-10.4171
▁structural	-10.4182
ch	-10.4182
▁surround	-10.4188
▁permitt	-10.4191
▁albums	-10.4193
▁hypothesis	-10.4198
▁install	-10.4199
▁overview	-10.4199
▁carrie	-10.4204
bility	-10.4213
▁detroit	-10.4214
▁calculation	-10.4234
net	-10.4234
▁tape	-10.424
▁hiv	-10.4241
▁advertis	-10.4241
▁stopp	-10.425
▁athen	-10.4251
▁descent	-10.4265
▁migration	-10.4266
▁cash	-10.4269
▁ab	-10.4283
▁schedule	-10.4283
▁themes	-10.4285
▁indicat	-10.4285
▁owner	-10.4289
▁evolutionar	-10.429
▁skills	-10.43
▁programme	-10.4302
▁metric	-10.4304
▁laid	-10.4306
▁portrait	-10.4316
▁constantinop	-10.4316
id	-10.4317
▁lift	-10.4319
▁customer	-10.4319
▁grown	-10.4329
▁lithuania	-10.4339
▁basketball	-10.435
▁fm	-10.435
▁manual	-10.4354
▁perceiv	-10.4361
▁sale	-10.4365
▁comprehensive	-10.4367
▁restaurant	-10.4367
▁tension	-10.4367
▁compiler	-10.438
▁ritual	-10.4382
▁recommend	-10.4382
▁axiom	-10.4384
▁mutual	-10.4385
▁bibliograph	-10.4387
▁vertical	-10.4391
▁col	-10.4391
▁su	-10.4397
▁dating	-10.4398
▁galler	-10.4402
▁statistical	-10.4402
▁guest	-10.4403
▁angel	-10.4413
▁ends	-10.4417
▁explosive	-10.4418
▁ruling	-10.4421
▁developer	-10.4421
▁diplomatic	-10.4422
▁infection	-10.4423
▁reduction	-10.4424
▁citizen	-10.4436
▁coat	-10.4441
▁boundary	-10.4444
▁bands	-10.4445
▁rocket	-10.4455
▁guitarist	-10.4456
▁render	-10.4462
▁induct	-10.4468
▁horror	-10.4469
▁senior	-10.4469
▁cathedral	-10.4469
▁automatic	-10.4486
▁stor	-10.4487
▁williams	-10.4488
▁ports	-10.4492
▁finalist	-10.451
▁pover	-10.4516
▁gate	-10.4519
▁archbishop	-10.4521
▁aids	-10.4521
▁simultaneous	-10.4521
▁engag	-10.4527
▁noun	-10.4534
▁absorb	-10.4535
▁longest	-10.4539
▁pa	-10.4539
▁jacob	-10.4548
tario	-10.4553
▁administer	-10.4556
▁victoria	-10.456
▁participate	-10.4561
▁fertil	-10.4564
▁sh	-10.4567
▁linguistic	-10.457
▁comedian	-10.4574
▁jet	-10.4574
▁unix	-10.4576
▁approv	-10.4587
▁trigger	-10.4591
▁matrix	-10.4591
▁bonds	-10.4592
▁monopol	-10.4594
▁send	-10.4598
▁buddhist	-10.46
▁wor	-10.4601
▁proceed	-10.4602
▁compressi	-10.4603
▁icon	-10.4604
▁impose	-10.4608
▁mixture	-10.4608
mann	-10.4612
▁sphere	-10.4613
▁mile	-10.4625
▁dylan	-10.4626
▁interval	-10.4626
▁drop	-10.463
▁tales	-10.4631
▁dragon	-10.4631
▁animat	-10.4635
▁beach	-10.4643
▁sand	-10.4644
▁deposit	-10.4646
▁knew	-10.4661
▁presidenc	-10.4664
▁municipalit	-10.4666
▁con	-10.4669
▁miss	-10.4671
▁chronicle	-10.4676
berg	-10.4676
▁threaten	-10.4676
▁defensive	-10.4678
▁perception	-10.4679
▁neo	-10.4686
▁gone	-10.4691
▁flash	-10.4693
▁suspect	-10.4696
▁thirty	-10.4713
▁dublin	-10.4719
▁nasa	-10.472
▁cdot	-10.4722
▁exploit	-10.473
▁getting	-10.4734
▁landing	-10.4736
▁extinct	-10.4747
▁abolish	-10.4749
▁enterprise	-10.4753
▁provision	-10.4757
▁liberty	-10.4759
sky	-10.4764
▁assumption	-10.4767
▁waves	-10.477
▁animation	-10.4779
▁clark	-10.4785
▁romantic	-10.4789
▁proportion	-10.4789
▁crowd	-10.4797
▁absence	-10.4802
▁punishment	-10.4803
▁manufacture	-10.4809
▁consequent	-10.482
▁peer	-10.4832
up	-10.4834
▁santa	-10.4835
▁package	-10.4837
▁bears	-10.4839
▁digit	-10.4841
▁loose	-10.4844
▁copper	-10.4848
▁sleep	-10.4853
▁homosexual	-10.4857
▁diseases	-10.4858
▁steps	-10.4862
▁artistic	-10.4864
▁negotiation	-10.4875
▁deput	-10.4876
▁refugee	-10.4876
▁rod	-10.489
▁dj	-10.4893
▁plastic	-10.4895
▁associate	-10.4906
▁earthquake	-10.491
▁kick	-10.4916
▁bulgaria	-10.4917
▁astronomer	-10.4927
▁psychological	-10.4928
▁predominant	-10.4928
▁wage	-10.4928
▁attitude	-10.4929
▁rabbi	-10.4931
▁agave	-10.4931
▁mose	-10.4936
▁bulgarian	-10.4938
▁assault	-10.4947
▁nato	-10.4948
▁southeast	-10.4949
▁lenin	-10.4949
▁empty	-10.495
▁founding	-10.4952
▁macedonia	-10.4953
no	-10.4962
▁matthew	-10.4964
▁taiwan	-10.4964
▁distinctive	-10.4966
▁tracks	-10.4968
▁mammal	-10.4975
▁chi	-10.4981
▁rom	-10.4981
▁surrender	-10.4982
▁renaissance	-10.4982
▁ko	-10.4982
▁replacement	-10.4983
▁criticiz	-10.4983
▁friedrich	-10.4985
▁anarchist	-10.4989
▁thin	-10.499
tic	-10.4992
▁prohibit	-10.4997
▁hamilton	-10.4999
▁tissue	-10.5
▁franchise	-10.5008
▁canon	-10.5009
▁lords	-10.5012
▁pain	-10.5012
ible	-10.5017
▁angels	-10.5018
▁relief	-10.5018
▁careful	-10.5018
▁lawyer	-10.5021
▁wheel	-10.5024
▁carter	-10.5026
▁ph	-10.5037
▁conspirac	-10.5037
▁sacred	-10.5041
▁baptist	-10.5045
▁senator	-10.5047
▁listing	-10.5049
▁reli	-10.5055
▁railroad	-10.5064
▁combine	-10.5071
▁descend	-10.5072
▁phi	-10.5074
▁falls	-10.5078
▁outer	-10.5079
▁inch	-10.5088
▁southwest	-10.5091
▁territorial	-10.5092
▁decide	-10.5094
▁pi	-10.5108
▁benjamin	-10.511
▁syndrome	-10.511
▁carolina	-10.511
▁styles	-10.511
▁leo	-10.5126
▁commodore	-10.5128
water	-10.513
▁membrane	-10.5133
sburg	-10.5133
▁phenomena	-10.5142
▁vienna	-10.5146
▁personalit	-10.5155
▁taste	-10.5155
▁revelation	-10.5165
▁electoral	-10.5167
ches	-10.5168
▁tactic	-10.517
▁sacrifice	-10.518
▁modification	-10.5183
▁talent	-10.5183
▁premier	-10.5189
▁tony	-10.5195
▁virgin	-10.5195
▁tendenc	-10.5198
▁preserve	-10.5198
▁contribute	-10.5206
▁compatible	-10.5211
▁diverse	-10.5211
▁chose	-10.5213
▁sp	-10.5215
▁boe	-10.5216
▁lock	-10.5218
▁volunteer	-10.522
▁bureau	-10.5221
▁tru	-10.5221
▁demonstrat	-10.5227
▁faced	-10.5227
▁denomination	-10.5232
▁elephant	-10.5239
▁johann	-10.5239
▁geographical	-10.5239
▁contributions	-10.524
▁br	-10.5248
▁handle	-10.5251
▁resemble	-10.5259
▁bi	-10.5261
▁hat	-10.5271
▁secular	-10.5276
▁communism	-10.5277
▁programmer	-10.5281
▁shar	-10.5285
▁hills	-10.5289
▁sudden	-10.5295
▁beside	-10.5309
▁log	-10.531
▁chemist	-10.5312
▁welsh	-10.5314
▁bishops	-10.5314
▁speaker	-10.5316
▁trust	-10.5325
▁christopher	-10.5334
▁travell	-10.5336
▁noble	-10.5343
▁farmer	-10.5343
▁behaviour	-10.5359
▁twentieth	-10.537
▁crimes	-10.537
▁accompanie	-10.5371
▁ethical	-10.5372
▁danger	-10.5389
▁anthon	-10.5392
▁inhabit	-10.5395
▁grade	-10.5397
▁applie	-10.5398
▁module	-10.5399
▁tail	-10.5399
▁footballer	-10.54
▁gibraltar	-10.5405
▁cleveland	-10.5408
▁ownership	-10.5409
▁ghost	-10.5411
▁pen	-10.5413
▁novelist	-10.5415
▁console	-10.5419
▁deck	-10.5427
▁confederate	-10.5427
▁racial	-10.543
▁corps	-10.5436
▁prefer	-10.5444
▁constellation	-10.5446
▁esperanto	-10.5446
▁tim	-10.5449
▁dress	-10.545
▁regardles	-10.5452
▁tribe	-10.5458
▁grey	-10.5459
▁belt	-10.5463
ki	-10.547
▁sox	-10.548
▁educat	-10.5482
▁lt	-10.5483
▁specializ	-10.5483
▁codes	-10.5487
▁hits	-10.5488
▁nova	-10.549
▁disney	-10.5501
▁bronze	-10.5503
▁debut	-10.5503
▁automobile	-10.5503
▁elder	-10.5518
▁narrative	-10.5523
▁cricket	-10.5523
▁contrar	-10.5524
▁horn	-10.5536
▁arithmetic	-10.5536
▁amendment	-10.5541
▁meta	-10.5545
▁encourage	-10.555
▁librarie	-10.5561
▁achievement	-10.5562
▁framework	-10.558
▁colors	-10.5596
▁infant	-10.5601
▁fran	-10.5609
▁harbor	-10.561
▁decisions	-10.5612
▁singular	-10.5613
▁campbell	-10.5616
▁markets	-10.5616
▁catch	-10.5617
▁disappear	-10.5617
▁insert	-10.5618
▁confusion	-10.5618
▁isaac	-10.5619
▁chromosome	-10.5621
▁maritime	-10.5625
▁bann	-10.5632
▁adapted	-10.5633
▁massacre	-10.5637
▁colorado	-10.5638
▁statue	-10.5638
▁visitor	-10.564
▁tale	-10.5642
▁ra	-10.5651
▁morocco	-10.5657
▁preced	-10.5667
▁coca	-10.5671
▁heir	-10.5671
▁intervention	-10.5676
▁iranian	-10.5679
▁uncle	-10.5683
▁emperors	-10.5685
▁siege	-10.5687
▁armor	-10.569
▁isolat	-10.5691
▁comprise	-10.5696
▁bull	-10.5699
▁beta	-10.5703
▁dancer	-10.5704
▁princess	-10.5706
▁arc	-10.5709
▁spacecraft	-10.5717
▁baby	-10.5718
▁diagram	-10.5731
▁armour	-10.5735
▁herbert	-10.5737
▁heads	-10.5741
▁submarine	-10.5751
ney	-10.5755
▁plague	-10.5755
▁amateur	-10.5774
▁voter	-10.5775
▁browser	-10.5776
▁stick	-10.5786
▁dramatic	-10.5791
▁smooth	-10.5794
▁separation	-10.5795
▁strategic	-10.5795
▁buddhis	-10.5806
▁arrang	-10.5807
▁bombing	-10.581
▁synthesis	-10.5811
▁arise	-10.5811
▁theologian	-10.5814
▁comparative	-10.5814
▁infrastructure	-10.5814
▁cr	-10.5814
▁goals	-10.5818
▁dec	-10.5819
▁lifetime	-10.5823
▁op	-10.5827
▁witness	-10.5829
▁tournament	-10.5833
▁cavalry	-10.5833
▁syllable	-10.5833
▁varying	-10.5841
▁chip	-10.5841
▁algebraic	-10.5844
mouth	-10.5846
▁leads	-10.5851
▁petroleum	-10.5853
▁bow	-10.5854
▁drew	-10.5855
▁optical	-10.5855
▁sheet	-10.5862
▁restor	-10.5868
▁cyprus	-10.5873
▁houston	-10.5873
▁voyage	-10.5873
▁insurance	-10.5875
▁congo	-10.5877
▁atlanta	-10.5878
▁hans	-10.5878
▁graph	-10.5879
▁jacque	-10.5885
▁monetar	-10.5886
▁sovereignt	-10.5891
▁enzyme	-10.5892
▁integration	-10.5896
▁anne	-10.5901
▁shipp	-10.5901
▁ignor	-10.5902
▁rebel	-10.5905
▁montreal	-10.5912
▁steam	-10.5913
▁lawrence	-10.5914
▁devil	-10.5928
▁slaver	-10.593
▁geographic	-10.5932
▁crusade	-10.5933
▁rear	-10.5939
while	-10.5942
▁barrel	-10.5948
▁voltage	-10.5952
▁galaxy	-10.5954
▁norman	-10.5956
▁fly	-10.5966
▁bach	-10.5966
▁scripture	-10.5972
▁sit	-10.5973
▁shield	-10.5974
▁float	-10.5974
▁gothic	-10.5978
go	-10.5984
ler	-10.5985
▁window	-10.5989
▁holocaust	-10.5992
▁download	-10.5992
▁rush	-10.5995
▁duck	-10.5998
▁realm	-10.6005
▁sixth	-10.6006
▁info	-10.6008
▁elevation	-10.6013
▁commerce	-10.6033
▁arrival	-10.6034
▁introduce	-10.6034
▁coffee	-10.6035
▁tube	-10.605
▁antarctic	-10.6053
▁oversea	-10.6053
▁mirror	-10.6055
▁differential	-10.6056
▁chancellor	-10.6073
▁magnitude	-10.6073
▁revolt	-10.6073
▁grace	-10.6073
▁allen	-10.6077
▁roads	-10.6086
▁twin	-10.6087
▁solv	-10.6088
liberation	-10.6089
▁quebec	-10.6092
▁efficienc	-10.6093
▁pollution	-10.6093
▁please	-10.6094
▁cooperation	-10.6094
▁playoff	-10.6097
▁accomplish	-10.6102
▁minnesota	-10.6102
▁merg	-10.6107
▁faction	-10.6109
▁excellent	-10.6113
▁headed	-10.6114
▁ibn	-10.6116
▁tunnel	-10.6118
▁guy	-10.6119
▁lithuanian	-10.6126
▁concentrat	-10.6127
▁calling	-10.6128
isation	-10.613
▁convince	-10.6134
▁involvement	-10.6136
▁seal	-10.6143
▁julian	-10.6144
▁unsuccessful	-10.6154
▁drama	-10.6159
▁attraction	-10.616
▁fled	-10.6164
▁alaska	-10.6165
port	-10.6165
▁se	-10.6168
▁miller	-10.6169
▁neck	-10.6171
▁anime	-10.6181
▁demonstrate	-10.6184
▁disambiguati	-10.6189
▁epic	-10.6191
power	-10.6196
▁sa	-10.62
▁sure	-10.62
board	-10.6204
▁invad	-10.6211
▁beaut	-10.6218
▁complet	-10.6221
▁bat	-10.6225
▁latvia	-10.6225
▁whatever	-10.6228
▁neighbour	-10.6236
▁enormous	-10.6236
▁unfortunate	-10.6236
▁personnel	-10.6236
ga	-10.6238
▁declin	-10.6246
▁torah	-10.6248
▁vii	-10.6253
▁prompt	-10.6257
▁norm	-10.6263
▁proven	-10.6264
▁papers	-10.6266
▁ross	-10.6268
▁monument	-10.6272
▁dune	-10.6274
▁yes	-10.6276
▁offering	-10.6276
▁taylor	-10.6277
▁engage	-10.6291
▁rotation	-10.6292
▁vegetable	-10.6298
▁creative	-10.6305
▁gauge	-10.6321
▁whil	-10.6325
▁cuban	-10.6326
▁costa	-10.6329
▁anthropolog	-10.633
▁tune	-10.6331
▁resist	-10.6331
▁camps	-10.6334
▁tribute	-10.6339
▁ac	-10.6342
▁les	-10.6348
▁hunting	-10.6349
▁solve	-10.6355
▁adventure	-10.636
▁compan	-10.6377
▁waste	-10.6379
▁legislature	-10.6381
▁dave	-10.6382
▁stack	-10.6383
▁ta	-10.6387
▁grounds	-10.6389
▁abc	-10.6391
▁orbital	-10.6392
▁hash	-10.6396
▁revis	-10.64
▁signature	-10.6402
▁emission	-10.6402
▁transmitt	-10.6407
most	-10.6408
▁falling	-10.6411
▁ethiopia	-10.6412
▁innovation	-10.6423
▁newly	-10.6423
burg	-10.6426
▁intention	-10.6426
▁turning	-10.6426
▁trip	-10.6434
▁insect	-10.6439
▁extract	-10.644
▁proponent	-10.6444
▁guarantee	-10.6444
▁theological	-10.6445
▁summar	-10.6448
▁pr	-10.6449
▁romance	-10.645
▁shah	-10.6457
▁doom	-10.646
▁romans	-10.6461
▁dealing	-10.6462
▁aristotle	-10.6465
▁concrete	-10.6465
▁remote	-10.6465
▁parameter	-10.6466
▁approval	-10.647
▁robot	-10.6485
▁mystery	-10.6486
▁belgian	-10.6486
▁monaster	-10.6486
▁designat	-10.6486
▁width	-10.6487
▁celebration	-10.6488
▁eve	-10.6488
▁runner	-10.649
▁oak	-10.649
ware	-10.6497
rose	-10.65
▁immigration	-10.6507
▁manage	-10.6507
▁kent	-10.6509
▁lutheran	-10.6511
▁deliberate	-10.6513
▁pin	-10.6524
▁citizenship	-10.6528
▁robinson	-10.6528
▁participation	-10.653
▁bone	-10.653
▁fu	-10.6534
▁broadcasting	-10.6534
ha	-10.6536
▁drum	-10.6536
▁han	-10.6542
▁supplement	-10.6549
▁devoted	-10.655
▁ken	-10.6551
▁admitted	-10.6551
▁passe	-10.6559
▁gather	-10.656
▁specifi	-10.6562
▁arizona	-10.657
▁hidden	-10.6571
▁gates	-10.6589
▁oscar	-10.6592
▁childhood	-10.6592
▁fusion	-10.6594
▁ski	-10.6594
▁sustain	-10.6594
▁dependenc	-10.6599
▁owners	-10.6602
▁symbolic	-10.6605
▁situat	-10.6611
▁philippine	-10.6613
▁romania	-10.6617
▁designation	-10.663
▁google	-10.6638
▁worst	-10.6641
▁settler	-10.6647
▁pagan	-10.6655
▁hierarch	-10.6655
▁valuable	-10.6658
▁shadow	-10.666
▁spot	-10.6671
▁peasant	-10.6677
▁flower	-10.6678
▁genes	-10.668
▁deni	-10.6682
▁northeast	-10.6683
▁superman	-10.6684
▁chad	-10.6687
▁spell	-10.6691
going	-10.6695
▁inherit	-10.6697
▁eleven	-10.6699
▁cartoon	-10.6704
▁genesi	-10.6713
▁exclud	-10.6718
▁consensu	-10.672
▁obsolete	-10.672
▁funeral	-10.672
▁strange	-10.6723
▁legendar	-10.6729
▁basin	-10.673
▁gen	-10.6736
▁margaret	-10.6742
▁terminolog	-10.6742
▁decay	-10.6742
▁assistant	-10.6742
▁statute	-10.6743
idae	-10.6744
▁covers	-10.6749
▁isle	-10.6762
▁astronom	-10.6763
▁gr	-10.6763
▁topic	-10.6773
▁stretch	-10.6778
▁reader	-10.6779
▁bread	-10.6787
▁gamma	-10.6789
▁ruin	-10.6791
▁removal	-10.6797
▁conception	-10.6798
▁seed	-10.6799
▁calculat	-10.68
▁recall	-10.6807
▁raw	-10.682
▁gordon	-10.6829
il	-10.6829
▁interactive	-10.6829
▁exploration	-10.683
▁hearing	-10.6843
▁lane	-10.6846
▁mood	-10.6847
▁er	-10.685
▁iowa	-10.6852
ists	-10.6853
▁dick	-10.6858
ivity	-10.686
▁surprise	-10.6865
▁pool	-10.6866
lium	-10.687
▁preparation	-10.6873
▁songwriter	-10.6875
▁harrison	-10.6877
▁mo	-10.6877
▁poll	-10.6881
▁tea	-10.6889
▁planets	-10.689
▁bernard	-10.6891
▁wayne	-10.6902
▁turing	-10.6904
▁prussia	-10.6906
▁incorporate	-10.6916
▁sovereign	-10.6917
▁fishing	-10.6923
▁mercur	-10.6924
▁kuwait	-10.693
▁oral	-10.6952
▁burning	-10.6959
▁millennium	-10.696
▁adjacent	-10.6961
▁philadelphia	-10.6961
▁housing	-10.6961
▁bitter	-10.6962
▁enabl	-10.6969
▁flood	-10.6977
▁climb	-10.698
▁sweet	-10.698
▁accent	-10.6982
▁retreat	-10.6982
▁johnny	-10.6984
▁sultan	-10.6992
rapy	-10.6995
▁counties	-10.7001
▁suburb	-10.7001
ative	-10.7002
▁mad	-10.7005
▁feminist	-10.7005
ification	-10.7005
▁intense	-10.7006
▁capita	-10.7008
▁guid	-10.7015
▁ku	-10.7016
▁elaborate	-10.7026
▁eternal	-10.7027
▁suffering	-10.7028
▁shore	-10.7031
ana	-10.7036
▁capitalist	-10.7038
▁serial	-10.7042
▁condemn	-10.7048
▁explosion	-10.7049
▁cognitive	-10.7049
▁driving	-10.705
▁corruption	-10.705
▁asteroid	-10.7051
▁dinosaur	-10.7067
da	-10.707
▁clay	-10.707
▁buffalo	-10.7071
▁reprint	-10.7072
▁dot	-10.7072
▁median	-10.7086
▁linguistics	-10.7086
▁cartridge	-10.7094
▁feast	-10.7094
▁highland	-10.7094
▁trouble	-10.7097
▁bias	-10.71
▁dismiss	-10.7112
▁fbi	-10.712
▁elite	-10.7121
▁cow	-10.7125
▁consideration	-10.7126
▁turk	-10.7134
▁louisian	-10.7134
▁shooting	-10.7134
▁cease	-10.7138
▁pocket	-10.7139
▁judgment	-10.7139
▁divorce	-10.7142
▁covering	-10.7143
▁facts	-10.7146
▁sail	-10.7148
▁bengal	-10.7152
▁complicated	-10.716
▁inspiration	-10.7165
▁jur	-10.7172
▁translate	-10.7172
▁stem	-10.7175
▁rand	-10.7176
▁clergy	-10.7184
▁predecessor	-10.7184
▁unofficial	-10.7184
▁tight	-10.7188
▁vs	-10.7204
▁thompson	-10.7206
▁proto	-10.7207
▁nelson	-10.7207
▁nucle	-10.721
▁manga	-10.7212
▁bought	-10.7215
▁luke	-10.7217
▁aka	-10.7224
▁cousin	-10.7229
▁cluster	-10.7239
▁craft	-10.724
nce	-10.7248
▁baroque	-10.7252
▁python	-10.7252
▁emotional	-10.7252
▁bicycle	-10.726
▁significan	-10.7265
den	-10.7271
▁binding	-10.7275
▁remainder	-10.7276
▁amiga	-10.7276
▁trail	-10.7278
▁partners	-10.7279
▁employment	-10.7282
▁maker	-10.7287
▁conclud	-10.7289
▁wa	-10.729
▁rhythm	-10.7296
▁printing	-10.7297
▁timeline	-10.7298
▁murray	-10.73
▁borough	-10.7309
▁interrupt	-10.7319
▁entropy	-10.732
▁beijing	-10.7321
▁configuration	-10.7321
▁brazilian	-10.7323
▁cellular	-10.7323
▁rating	-10.7325
▁clinical	-10.7325
▁raid	-10.7326
▁amazon	-10.7329
ut	-10.7334
▁directors	-10.7337
▁fired	-10.7346
ina	-10.7355
▁ideolog	-10.7359
▁rfc	-10.736
▁advice	-10.7366
▁jupiter	-10.7366
▁corner	-10.7371
▁metro	-10.7385
▁panel	-10.7388
▁relevant	-10.7389
▁gap	-10.7393
▁tongue	-10.7395
▁seventh	-10.74
▁sch	-10.7402
▁instrumental	-10.7405
▁habit	-10.7406
▁kosov	-10.741
▁ready	-10.7411
▁bulk	-10.7412
▁dialogue	-10.7413
▁cap	-10.7415
▁hawaii	-10.742
▁augustus	-10.7422
▁palestin	-10.7434
▁transaction	-10.7436
▁ho	-10.7445
▁wilhelm	-10.7448
▁homer	-10.7457
▁var	-10.7458
▁liverpool	-10.7459
▁repeat	-10.7461
reby	-10.7468
▁similarit	-10.7474
▁athletic	-10.7482
▁teach	-10.7486
▁compet	-10.7486
▁adoption	-10.7491
▁corn	-10.7492
▁participat	-10.7496
▁limitation	-10.7497
▁marvel	-10.7501
▁routes	-10.7504
▁participant	-10.7505
▁exposure	-10.7506
▁winds	-10.751
ett	-10.7521
▁sect	-10.7525
▁streets	-10.7525
▁easter	-10.7525
▁accurac	-10.7529
▁neighborhood	-10.7529
▁stanley	-10.7529
▁triple	-10.7536
▁permit	-10.7542
▁malaysia	-10.7542
▁illness	-10.7544
▁bomber	-10.7545
▁patriarch	-10.7552
▁horizontal	-10.7552
▁dated	-10.7555
▁jo	-10.7556
▁anderson	-10.7562
▁chris	-10.757
▁landscape	-10.7574
▁enable	-10.7575
▁marie	-10.7575
▁sensitive	-10.7576
▁gandhi	-10.7576
▁aaron	-10.7577
▁payment	-10.7578
ri	-10.7579
▁abu	-10.7581
▁id	-10.7582
▁jimm	-10.7582
▁bare	-10.7584
▁alive	-10.7591
▁revision	-10.7595
▁abortion	-10.7597
▁wider	-10.7598
▁stabilit	-10.7598
▁phoenix	-10.7599
▁vacuum	-10.7599
ant	-10.76
▁violation	-10.76
▁indirect	-10.7602
▁croatia	-10.7612
ell	-10.7617
▁baltimore	-10.7623
▁kernel	-10.7623
▁arguabl	-10.7623
▁struck	-10.7625
▁compris	-10.7625
▁goth	-10.7629
▁trend	-10.7631
▁mask	-10.7632
▁trait	-10.7634
ate	-10.7646
▁examination	-10.7647
▁marxist	-10.7649
▁mongol	-10.7651
▁virtue	-10.7651
▁reconstruction	-10.7655
ea	-10.7662
▁attain	-10.7664
▁pack	-10.767
▁happy	-10.767
▁toronto	-10.767
▁initiative	-10.7671
▁barrier	-10.7672
▁decimal	-10.7675
▁fifteen	-10.7687
▁expenditure	-10.7694
▁cattle	-10.7694
▁revival	-10.7695
▁baron	-10.7698
▁viii	-10.7702
▁trivia	-10.7703
▁competitive	-10.7711
▁remark	-10.7714
▁worm	-10.7714
▁eclipse	-10.7714
▁honey	-10.7722
elecommunication	-10.7727
▁versu	-10.7729
▁oh	-10.7731
▁insist	-10.7735
▁epistle	-10.7741
▁ieee	-10.7742
▁instant	-10.7746
ily	-10.7757
▁singapore	-10.7762
▁lieutenant	-10.7765
▁monroe	-10.7766
▁coverage	-10.7769
▁mini	-10.7772
▁clothing	-10.7773
▁larr	-10.778
▁harmonic	-10.7782
lice	-10.7783
▁beam	-10.7784
▁jane	-10.7785
▁silent	-10.7789
▁outcome	-10.779
▁fallen	-10.7791
▁mao	-10.7792
▁isotope	-10.7792
▁atlas	-10.7792
▁patron	-10.7799
▁horses	-10.7801
▁arch	-10.7801
▁gray	-10.7802
▁anarch	-10.7802
▁serbia	-10.7804
▁handed	-10.7816
▁consult	-10.7818
▁fa	-10.7824
▁loan	-10.783
▁photos	-10.7831
▁dozen	-10.7832
w	-10.7833
▁thirteen	-10.784
▁grave	-10.7846
▁privilege	-10.7855
▁update	-10.7862
▁hi	-10.7863
▁autonomous	-10.7863
▁compete	-10.787
▁strain	-10.7873
han	-10.7879
▁jobs	-10.7879
▁mann	-10.788
j	-10.7882
▁abbreviation	-10.7887
▁cutting	-10.7887
▁extinction	-10.7888
▁hunter	-10.7898
▁geneva	-10.7899
▁po	-10.79
▁math	-10.79
▁missionar	-10.7906
ington	-10.7907
▁riot	-10.7907
▁conservation	-10.7909
▁ali	-10.7913
▁uprising	-10.7913
▁bigg	-10.7921
▁rite	-10.7923
▁scope	-10.7923
▁listen	-10.7924
▁franco	-10.7925
ng	-10.7928
▁genome	-10.7935
▁terrain	-10.7935
▁rely	-10.7938
▁broadwa	-10.7945
▁consent	-10.7953
▁milan	-10.7954
▁covenant	-10.7954
▁convict	-10.7957
▁surname	-10.7959
▁ion	-10.7962
▁joke	-10.7963
▁marks	-10.7966
▁afc	-10.7967
▁baker	-10.7971
employment	-10.7971
ial	-10.7973
▁sw	-10.7977
▁marry	-10.7983
▁rap	-10.7983
▁accord	-10.7985
▁reliabl	-10.7991
▁sight	-10.7996
▁wins	-10.7999
▁dalek	-10.8009
▁ascii	-10.8009
▁demonstration	-10.801
▁trinit	-10.8015
▁expense	-10.8032
▁dolphin	-10.8033
▁firearm	-10.8033
▁fisher	-10.8033
▁sanction	-10.8033
▁slavic	-10.8033
ck	-10.8041
▁fold	-10.805
▁colombia	-10.8055
▁diego	-10.8058
▁adventures	-10.8059
▁liberalism	-10.806
▁vital	-10.8061
▁automatical	-10.8063
▁shoot	-10.8064
▁fun	-10.8065
▁ash	-10.8072
▁friendly	-10.8073
▁lion	-10.8082
▁incorrect	-10.8082
▁austin	-10.8082
▁counterpart	-10.8082
▁harm	-10.8085
▁eliminat	-10.8086
un	-10.8091
▁otto	-10.8103
▁trotsky	-10.8104
▁flame	-10.8104
▁pole	-10.8104
▁keys	-10.8104
▁primitive	-10.8106
▁semitic	-10.8107
▁critique	-10.8114
▁minimal	-10.8115
▁etymolog	-10.8124
▁antiquit	-10.8125
▁competitor	-10.8131
▁diameter	-10.8131
▁warner	-10.8133
▁fiber	-10.8134
▁noise	-10.8145
▁edinburgh	-10.8156
▁nomination	-10.8158
▁bearing	-10.8164
▁maryland	-10.8166
▁plateau	-10.817
▁albania	-10.8171
em	-10.8172
▁readers	-10.8177
▁performer	-10.8179
▁suppress	-10.818
▁inherent	-10.8181
▁rolling	-10.8181
▁generic	-10.8181
▁chair	-10.8182
▁definite	-10.8184
▁gravitational	-10.8184
▁saudi	-10.8184
▁spaces	-10.8188
▁hir	-10.8198
▁technological	-10.8206
▁fascist	-10.8206
▁buddha	-10.8207
▁servers	-10.8207
▁hoover	-10.8208
▁electromagnetic	-10.8208
▁dense	-10.8209
▁conclude	-10.8215
im	-10.8215
▁jonath	-10.8217
▁prussian	-10.8218
▁polici	-10.8219
▁ride	-10.8229
▁franc	-10.8236
▁scandal	-10.8237
▁alter	-10.8246
▁bases	-10.8248
▁trademark	-10.8257
▁wright	-10.8262
▁norse	-10.8263
▁coins	-10.8264
▁bel	-10.8264
after	-10.8265
▁proceeding	-10.8266
▁survival	-10.8271
▁juan	-10.8276
▁ann	-10.8279
▁addresse	-10.828
▁pleasure	-10.8281
▁mickey	-10.8282
▁resort	-10.8282
▁cargo	-10.8283
▁fift	-10.8285
▁ties	-10.8286
▁poison	-10.8289
▁graphic	-10.8306
▁facult	-10.8307
▁distant	-10.8307
▁taxe	-10.8311
icut	-10.8313
▁slang	-10.8315
▁libya	-10.8316
▁derivative	-10.8318
▁stoo	-10.8322
▁suspend	-10.8332
▁identification	-10.8332
▁obligation	-10.8333
▁speculation	-10.8333
▁withdraw	-10.8336
▁franz	-10.834
▁sponsor	-10.8341
▁chord	-10.8341
▁boil	-10.8343
▁vari	-10.8345
▁gross	-10.8349
▁expect	-10.8352
▁lb	-10.8353
▁florence	-10.8358
▁astronomical	-10.8358
▁tag	-10.8359
▁patrick	-10.8361
▁favorite	-10.8361
▁helen	-10.8362
▁harmon	-10.8366
▁gear	-10.8372
▁authentic	-10.8377
▁liver	-10.8378
▁babylon	-10.8381
▁bullet	-10.8382
▁anniversar	-10.8383
ou	-10.8383
▁thick	-10.8385
▁orientation	-10.8392
▁swing	-10.8397
▁excess	-10.8408
▁communion	-10.8409
▁provincial	-10.8409
▁aesthetic	-10.8414
▁congregation	-10.8414
▁companion	-10.8418
io	-10.8422
▁kentuck	-10.8432
ko	-10.8433
▁veteran	-10.8434
▁preference	-10.8435
▁arrive	-10.8436
▁romanian	-10.844
▁morris	-10.8452
▁interact	-10.8458
▁assembl	-10.846
▁pursu	-10.8461
▁mbox	-10.8463
▁react	-10.8465
▁guardian	-10.8477
ti	-10.8479
▁vocabular	-10.8485
▁radar	-10.8486
ol	-10.8487
▁cannon	-10.8488
▁arama	-10.8489
▁economie	-10.8489
▁relat	-10.849
▁dominate	-10.8496
▁alcoholic	-10.8497
▁numeral	-10.8511
▁powder	-10.8511
▁suitabl	-10.8517
▁exceed	-10.8521
▁spend	-10.8525
▁invit	-10.8529
▁irc	-10.8533
▁nominal	-10.8537
▁sanskrit	-10.8537
▁avenue	-10.8537
▁sydney	-10.8537
▁permission	-10.8537
▁kevin	-10.8537
▁fi	-10.8546
▁naming	-10.8555
▁physiolog	-10.8558
▁sequel	-10.8563
▁criteria	-10.8563
▁packet	-10.8563
▁desktop	-10.8564
▁godzilla	-10.8565
▁mal	-10.8565
▁holes	-10.8568
house	-10.8571
▁amino	-10.8573
▁nominat	-10.8579
▁arabia	-10.8583
▁legion	-10.8587
▁junior	-10.8589
▁cylinder	-10.8589
▁destination	-10.8589
▁occupy	-10.859
▁cache	-10.859
▁fortune	-10.8591
▁withdrawal	-10.8593
▁farming	-10.8597
▁periodic	-10.8607
▁autonom	-10.8614
▁striking	-10.8615
▁celebrate	-10.8615
▁inscription	-10.8615
▁macau	-10.8618
▁dominican	-10.8623
▁girls	-10.8624
▁missing	-10.8626
▁serbian	-10.8627
▁gore	-10.8633
▁wake	-10.8637
▁dust	-10.8639
▁circular	-10.8641
▁confederation	-10.8641
▁yankee	-10.8641
▁glucose	-10.8641
▁wings	-10.8642
▁critic	-10.8642
▁unifi	-10.8642
▁genres	-10.8644
▁mine	-10.865
▁punk	-10.865
▁bosnia	-10.8656
▁inverse	-10.8656
▁spending	-10.8657
tenance	-10.8661
▁attorney	-10.8667
▁solomon	-10.8667
▁diesel	-10.8668
off	-10.8669
▁jay	-10.8679
▁annex	-10.868
▁macedonian	-10.8683
▁egg	-10.8683
▁municipal	-10.8685
▁canter	-10.869
broad	-10.869
▁anthem	-10.8692
▁leibniz	-10.8693
▁fulfill	-10.8695
▁rescue	-10.8696
▁libertarian	-10.8697
▁conan	-10.8711
▁organ	-10.8713
▁conscious	-10.8717
▁au	-10.8718
▁che	-10.872
▁graham	-10.872
▁latitude	-10.8721
▁frontier	-10.8721
▁tennis	-10.8721
▁approache	-10.8723
▁clone	-10.8728
▁battles	-10.8728
▁explor	-10.8728
▁decree	-10.8734
▁facing	-10.8735
▁lover	-10.8737
▁renew	-10.8742
▁compress	-10.8744
▁arbitrar	-10.8757
▁fraction	-10.8757
▁statesman	-10.8767
▁wisconsin	-10.8773
▁judah	-10.8773
▁aviation	-10.8773
▁entrance	-10.8773
▁galileo	-10.8775
▁julius	-10.8775
▁till	-10.8791
▁tied	-10.8793
▁propaganda	-10.8799
▁triangle	-10.8799
▁shakespeare	-10.88
▁relate	-10.8801
▁socialism	-10.8807
mond	-10.8813
▁estonia	-10.8815
▁proportional	-10.8818
▁imply	-10.8819
▁pirate	-10.8819
ix	-10.882
▁emphasize	-10.882
▁belarus	-10.8824
▁correspondence	-10.8826
▁drives	-10.8829
▁commissioner	-10.883
▁deem	-10.8836
▁wise	-10.8841
body	-10.8847
▁crossing	-10.8848
▁whale	-10.8849
▁luxembourg	-10.8851
▁compil	-10.8853
▁danc	-10.8856
▁separat	-10.8856
▁babylonian	-10.8858
▁mild	-10.8859
▁blocks	-10.8864
▁forbidd	-10.8878
▁masse	-10.8879
▁confidence	-10.8879
▁altitude	-10.8879
▁evangelical	-10.8879
▁artillery	-10.8879
▁cheese	-10.888
▁eagle	-10.8881
▁und	-10.8883
▁strand	-10.8883
▁feudal	-10.8884
▁sophisticat	-10.8888
▁boom	-10.8888
▁ron	-10.8888
▁roy	-10.8889
▁illustrated	-10.8889
▁trek	-10.889
▁ian	-10.8891
▁birthday	-10.8892
▁valve	-10.8896
▁evident	-10.8898
▁lens	-10.8902
▁systematic	-10.8905
▁nietzsche	-10.8906
▁practitioner	-10.8906
▁tennesse	-10.8906
▁archaeological	-10.8906
▁refuse	-10.8908
▁hammer	-10.891
▁sri	-10.8911
▁asset	-10.8917
▁chaos	-10.892
▁influenc	-10.8922
▁equipp	-10.8931
▁insulin	-10.8933
▁suite	-10.8939
▁spark	-10.8946
▁yugoslavia	-10.8949
ev	-10.895
▁plains	-10.8952
▁aside	-10.8954
▁discrete	-10.896
▁mill	-10.8968
▁ira	-10.8972
ae	-10.8977
▁tomb	-10.8977
▁fate	-10.8979
▁im	-10.8983
▁intermediate	-10.8987
▁stewart	-10.8987
▁observance	-10.899
▁afghan	-10.8992
▁reed	-10.8992
▁warning	-10.8998
▁hindi	-10.9003
▁barbar	-10.9008
▁barry	-10.9008
▁promotion	-10.9008
▁settle	-10.9008
▁realiz	-10.901
▁wisdom	-10.9014
▁sk	-10.9014
▁collaboration	-10.9015
▁merit	-10.9015
▁oppose	-10.9017
▁pav	-10.9029
▁acre	-10.9037
▁matche	-10.9038
▁restoration	-10.904
▁metals	-10.904
▁routine	-10.9041
stock	-10.9043
▁microwave	-10.9043
▁jerry	-10.9044
▁qur	-10.9046
▁melt	-10.9048
▁golf	-10.9052
▁demon	-10.9054
▁borrow	-10.9059
▁ferdinand	-10.906
▁warming	-10.9064
▁syntax	-10.9068
▁emotion	-10.9068
▁receptor	-10.9069
▁cookie	-10.9071
▁guilty	-10.9079
▁atheist	-10.9082
▁stroke	-10.9088
▁charle	-10.9089
▁alumini	-10.9091
▁championships	-10.9093
inus	-10.9106
▁brass	-10.9118
▁thanks	-10.9119
▁shap	-10.9119
▁gaul	-10.9119
stein	-10.9122
▁ukrain	-10.9122
▁stuart	-10.9123
▁globe	-10.9125
▁albanian	-10.9128
▁praise	-10.9129
▁sculpture	-10.9142
▁gu	-10.9143
▁anchor	-10.915
▁elvis	-10.9151
▁mosque	-10.9151
▁cincinnati	-10.9151
▁servant	-10.9152
▁transit	-10.9153
▁operational	-10.9155
▁kim	-10.9156
▁sensor	-10.9157
▁heretic	-10.917
▁fred	-10.9171
▁pitcher	-10.9173
▁militia	-10.9178
▁circumcision	-10.9178
▁terry	-10.9179
▁overthrow	-10.9179
▁potter	-10.918
▁pat	-10.9181
▁surger	-10.9184
▁presentation	-10.9188
▁restore	-10.9188
▁ark	-10.9191
▁remarkable	-10.9198
▁nazis	-10.9201
▁killer	-10.9202
▁cotton	-10.9206
anford	-10.9207
▁repair	-10.9207
ke	-10.9207
▁recognis	-10.9208
▁dogs	-10.921
▁stamp	-10.922
war	-10.922
saw	-10.9227
▁argentine	-10.9231
▁motorcycle	-10.9233
▁cowboy	-10.9233
substantial	-10.9234
▁watson	-10.9234
▁treatise	-10.9234
▁peru	-10.9236
▁contribution	-10.9236
▁determin	-10.9236
▁gift	-10.9236
▁successive	-10.9239
▁backward	-10.924
▁computational	-10.9247
▁humor	-10.9248
▁pound	-10.9251
▁reache	-10.9252
▁lo	-10.9252
▁collections	-10.9254
▁lex	-10.9257
▁salvador	-10.9258
▁guerrilla	-10.9261
▁catalan	-10.9264
▁regiment	-10.9265
▁announce	-10.9276
ling	-10.9277
▁salvation	-10.9289
▁navigation	-10.929
▁rings	-10.929
▁prototype	-10.9294
▁autobiograph	-10.9299
▁gathering	-10.9301
▁strait	-10.9317
▁illustration	-10.9317
▁ep	-10.9317
▁retirement	-10.9317
▁tip	-10.932
▁rocks	-10.9323
▁antonio	-10.9328
▁slot	-10.9329
▁xi	-10.9338
of	-10.9344
▁consecutive	-10.9345
▁immune	-10.9345
▁onward	-10.9346
▁symphon	-10.9347
▁ridge	-10.9359
▁retriev	-10.9365
▁haiti	-10.937
▁nm	-10.9372
▁ng	-10.9372
▁claudius	-10.9373
▁printer	-10.9375
▁finds	-10.9375
▁ny	-10.9378
ja	-10.9379
▁polar	-10.9382
▁holder	-10.9387
▁dalla	-10.9389
▁ti	-10.9397
▁ga	-10.9397
▁mccarthy	-10.9401
▁mhz	-10.9401
▁oswald	-10.9401
▁cemeter	-10.9401
▁harsh	-10.9402
▁mutation	-10.9402
▁reasoning	-10.9417
▁poe	-10.9421
▁syrian	-10.9422
ad	-10.9425
▁fur	-10.9428
▁munich	-10.943
▁implication	-10.943
▁alp	-10.9431
▁oregon	-10.9432
▁scots	-10.9432
▁coding	-10.9432
▁nouns	-10.9449
▁intent	-10.9456
▁wavelength	-10.9458
▁legitimate	-10.9458
▁battleship	-10.9462
▁joan	-10.9463
▁steven	-10.9476
▁flee	-10.9478
▁linguist	-10.9478
▁abilit	-10.9483
▁schedul	-10.9483
▁kb	-10.9484
▁glacier	-10.9486
▁multiplication	-10.9486
▁persecution	-10.9487
▁brigade	-10.9491
▁parish	-10.9493
ussr	-10.9501
▁lesson	-10.9505
▁westminster	-10.9515
▁feed	-10.9517
▁locomotive	-10.9517
▁robin	-10.9518
▁reward	-10.9519
▁mtv	-10.9521
▁reformation	-10.9525
▁bavaria	-10.9533
▁editions	-10.9534
▁believer	-10.9537
▁meter	-10.9538
▁doors	-10.954
▁prevail	-10.9543
▁lambda	-10.9544
▁milton	-10.9545
▁dose	-10.9548
▁slope	-10.9553
▁atheism	-10.9558
▁compromise	-10.9568
▁wesley	-10.9574
▁undergo	-10.9582
▁encoding	-10.9583
▁warrior	-10.9586
ir	-10.9586
▁dam	-10.9588
▁bang	-10.9596
▁lang	-10.9597
▁odd	-10.9598
▁frequenc	-10.9599
▁hilbert	-10.9601
▁maxwell	-10.9601
▁tiny	-10.9604
▁shi	-10.9614
za	-10.9619
▁grass	-10.9623
▁db	-10.9623
▁acquire	-10.9624
lumni	-10.9625
▁gets	-10.9625
▁portal	-10.9628
ai	-10.9629
▁hemisphere	-10.9629
▁acclaim	-10.9629
▁enlightenment	-10.963
▁commitment	-10.963
▁cha	-10.9631
▁madri	-10.9633
▁lebanese	-10.9635
▁turns	-10.9637
▁controller	-10.9638
▁mont	-10.964
hood	-10.9641
▁monk	-10.9651
▁eliminate	-10.9652
▁iraqi	-10.9653
▁geometric	-10.9656
▁athlete	-10.9659
▁gustav	-10.9659
▁affiliate	-10.966
▁morgan	-10.966
▁completion	-10.9661
▁pearl	-10.9674
▁stones	-10.9675
▁astronaut	-10.9676
▁jamaica	-10.9677
▁collins	-10.9677
▁readi	-10.9689
▁forcing	-10.9693
ak	-10.9696
▁croatian	-10.9701
▁prose	-10.9702
▁trains	-10.9703
▁tense	-10.9704
▁billy	-10.9713
▁deploy	-10.9716
▁alabama	-10.9716
▁ludwig	-10.9716
▁malcolm	-10.9716
▁duncan	-10.9716
▁adolf	-10.9716
▁foster	-10.9716
▁highlight	-10.9718
▁pipe	-10.9719
wich	-10.9719
▁appointment	-10.9721
▁pm	-10.9721
▁din	-10.9722
ez	-10.9723
▁princeton	-10.9723
▁ipa	-10.9725
▁abbey	-10.9727
lin	-10.9731
▁gm	-10.9733
▁wedding	-10.9734
▁computation	-10.9736
▁legs	-10.9742
▁circa	-10.9744
▁armenian	-10.9752
▁faces	-10.9763
▁em	-10.9764
▁pascal	-10.9776
▁factbook	-10.9776
▁ada	-10.9778
▁pact	-10.9786
▁sketch	-10.9792
▁hyper	-10.9793
▁putt	-10.9795
▁georg	-10.9799
▁sacrament	-10.98
▁homosexualit	-10.9801
▁fugue	-10.9804
▁rainfall	-10.9804
▁ronald	-10.9805
▁peaceful	-10.9805
▁quiet	-10.9806
▁kant	-10.9807
▁par	-10.9808
▁mandate	-10.9817
▁newer	-10.9827
▁harbour	-10.9828
▁expell	-10.983
▁advent	-10.983
▁amsterdam	-10.9833
▁volcanic	-10.9834
▁bio	-10.9834
▁click	-10.9835
ek	-10.9839
▁saving	-10.9841
▁numerical	-10.9842
▁conventions	-10.9844
▁kazakhstan	-10.985
ik	-10.9853
▁bud	-10.9858
all	-10.9858
▁cameroon	-10.9862
▁provider	-10.9863
▁claude	-10.9863
ter	-10.9864
▁breed	-10.9864
▁quot	-10.9865
▁ranking	-10.9866
▁leaf	-10.9868
▁wooden	-10.9873
▁inuit	-10.9876
▁charg	-10.9883
▁violin	-10.9893
▁availability	-10.9893
▁culminat	-10.9898
▁bin	-10.9901
▁entr	-10.9909
▁moldova	-10.9912
zer	-10.9913
ve	-10.9913
▁paradox	-10.9917
▁harold	-10.9922
▁nichola	-10.9922
▁edmund	-10.9923
▁genius	-10.9924
▁catherin	-10.9927
▁cent	-10.9939
▁erect	-10.9944
▁ticket	-10.9952
▁theorist	-10.9953
▁omega	-10.9953
▁thermal	-10.9954
▁incomplete	-10.9956
▁politically	-10.9957
▁eugene	-10.9959
▁infect	-10.9966
▁dice	-10.997
▁damag	-10.9972
▁losse	-10.9974
▁weber	-10.9974
▁cats	-10.9976
▁adjust	-10.9981
▁cornwall	-10.9982
▁miami	-10.9982
▁landmark	-10.9983
▁lit	-10.9985
▁tr	-10.9992
▁tokyo	-10.9997
night	-11.0005
▁scatter	-11.0008
▁embedd	-11.0011
▁precision	-11.0012
▁measur	-11.0037
math	-11.0038
▁fiscal	-11.0042
▁costume	-11.0045
▁prediction	-11.0046
▁prestig	-11.005
▁burial	-11.0051
▁enhanc	-11.0052
▁inquir	-11.0068
▁default	-11.0072
▁tribal	-11.0072
▁defendant	-11.0073
▁trick	-11.0076
▁yards	-11.0084
▁lind	-11.0085
▁telescope	-11.0086
▁formats	-11.0088
▁zeu	-11.0091
▁tie	-11.0092
▁persia	-11.0092
▁ancestr	-11.0097
▁communicate	-11.0099
▁pl	-11.0099
▁recruit	-11.0101
▁amplifier	-11.0103
▁gase	-11.0104
▁equilibri	-11.0105
▁clause	-11.0105
▁dawn	-11.0105
▁reflection	-11.011
▁radioactiv	-11.0111
▁graphical	-11.0124
istic	-11.0125
▁fatal	-11.0125
▁hurricane	-11.0132
▁saturday	-11.0132
▁homepage	-11.0133
▁occurrence	-11.0133
▁canonical	-11.0135
▁truck	-11.0139
ello	-11.0161
▁galaxi	-11.0163
▁calculator	-11.0164
▁hugo	-11.0164
▁lao	-11.0164
▁compilation	-11.0165
▁observe	-11.0165
▁deny	-11.0174
▁tiger	-11.0179
ility	-11.018
▁willing	-11.0183
▁receiver	-11.0183
nicode	-11.0184
▁hang	-11.0186
▁hamp	-11.0188
▁lesbian	-11.0194
▁dominion	-11.0196
▁dubbe	-11.0197
▁empirical	-11.02
▁hacker	-11.0211
▁edgar	-11.0211
▁firing	-11.0217
▁flavor	-11.0221
▁execute	-11.0222
▁coefficient	-11.0224
▁brad	-11.0225
▁apartment	-11.0226
▁mega	-11.0235
▁para	-11.0235
▁populat	-11.0236
▁boot	-11.0239
▁tu	-11.0241
▁hondura	-11.0244
▁lodge	-11.0251
▁sheep	-11.0254
ge	-11.0254
▁manhattan	-11.0255
ntendo	-11.0255
▁yale	-11.0256
li	-11.0262
▁floppy	-11.0267
▁diversit	-11.0268
▁cantor	-11.027
▁annually	-11.0271
ini	-11.0273
▁greenland	-11.0273
▁initiat	-11.0273
▁crow	-11.0281
▁faq	-11.0284
▁pet	-11.0286
▁spear	-11.0286
▁reagan	-11.0286
▁leon	-11.0286
▁enforcement	-11.0286
▁coastline	-11.0289
▁surprising	-11.0289
▁ir	-11.029
▁weaken	-11.0292
▁runway	-11.0294
▁documentation	-11.0296
▁modes	-11.0303
▁cola	-11.0304
▁walker	-11.0306
▁memoir	-11.0312
▁quest	-11.0314
▁joy	-11.0315
▁profound	-11.0316
▁elevator	-11.0317
▁bones	-11.0323
▁neil	-11.0323
▁pump	-11.0326
▁hate	-11.0334
▁adjective	-11.0335
▁mb	-11.0337
▁circles	-11.0338
work	-11.0341
▁poles	-11.0343
ties	-11.0345
▁plasma	-11.0347
▁jos	-11.0347
▁alberta	-11.0348
▁famine	-11.0348
▁snake	-11.0348
▁chocolate	-11.0349
▁infinit	-11.0349
▁grammatical	-11.035
erg	-11.035
▁collector	-11.035
▁resolve	-11.035
▁venue	-11.0352
ung	-11.0353
▁wallac	-11.0354
ps	-11.037
▁div	-11.0377
▁merger	-11.0378
▁manifold	-11.0378
▁colleague	-11.0378
▁squadron	-11.0378
▁prefix	-11.0378
▁crucial	-11.0379
▁drummer	-11.0381
▁shelter	-11.0382
▁anna	-11.0387
▁anger	-11.0394
▁explore	-11.0394
▁dart	-11.0397
▁brooks	-11.0397
▁ear	-11.0402
▁loyal	-11.0403
▁bind	-11.0403
▁cf	-11.0406
▁jefferson	-11.0408
▁arkansa	-11.0409
▁ingredient	-11.0409
▁brussel	-11.0409
▁hormone	-11.041
▁walt	-11.042
▁concerto	-11.0432
▁governors	-11.0432
▁kurt	-11.0433
▁hart	-11.0439
▁oxide	-11.0439
▁orleans	-11.0441
▁hubbard	-11.0441
▁rumor	-11.0441
▁excessive	-11.0442
▁gilbert	-11.0442
▁arctic	-11.0443
▁informal	-11.0457
▁metaphor	-11.0466
▁friction	-11.0471
▁testimon	-11.0472
▁chicken	-11.0473
▁friendship	-11.0473
▁complaint	-11.048
▁static	-11.048
▁finger	-11.0481
▁disadvantage	-11.0482
▁mistake	-11.0497
▁evening	-11.0499
▁polynomial	-11.0504
▁referendum	-11.0504
▁archipelago	-11.0504
▁wheat	-11.0505
▁altered	-11.0506
▁dramatical	-11.0509
▁ham	-11.0511
▁martyr	-11.0511
▁terror	-11.0511
set	-11.0514
▁bangladesh	-11.052
▁arabs	-11.052
▁har	-11.0527
▁nationalism	-11.053
▁aggressive	-11.0535
▁collision	-11.0535
▁battalion	-11.0535
▁essence	-11.0535
▁imf	-11.0536
▁scholarship	-11.0536
▁shop	-11.0537
▁bath	-11.0537
▁rio	-11.0537
▁weakness	-11.0541
▁creed	-11.0544
life	-11.0548
▁suggestion	-11.0552
▁klan	-11.0557
▁gregori	-11.0567
▁administrator	-11.0567
▁departure	-11.0567
▁beverage	-11.0567
▁bmw	-11.0567
▁meditation	-11.0567
▁pursuit	-11.0567
semitism	-11.0571
▁terrorism	-11.0573
▁denver	-11.0573
▁charli	-11.0588
▁uncertain	-11.06
▁nitrogen	-11.0601
▁monty	-11.0603
▁toxic	-11.0604
▁sudan	-11.0605
▁rugb	-11.0606
ight	-11.0606
▁witnesse	-11.0607
▁afl	-11.0608
▁ratifie	-11.061
▁cornell	-11.0611
▁layout	-11.0612
▁combusti	-11.0612
▁stan	-11.0617
▁flowers	-11.0627
▁knowing	-11.063
▁summit	-11.0631
▁crater	-11.0631
▁halt	-11.0631
▁partition	-11.0631
▁cloud	-11.0632
▁colonel	-11.0632
▁phil	-11.0632
▁synthetic	-11.0634
▁mandat	-11.0634
▁tables	-11.0638
▁defender	-11.0639
▁geological	-11.0641
▁mario	-11.0648
▁centered	-11.0649
▁lab	-11.0656
▁hybrid	-11.0658
▁pursue	-11.0659
▁jargon	-11.0662
▁sitting	-11.0663
wa	-11.0666
▁meal	-11.0668
▁midi	-11.0675
▁substitute	-11.0677
▁proton	-11.0678
▁acoustic	-11.0679
▁harris	-11.0681
▁matt	-11.0684
▁calgar	-11.0693
▁genocide	-11.0694
▁kilometre	-11.0694
▁knife	-11.0695
▁relay	-11.0695
▁sever	-11.0697
▁jew	-11.0699
▁plato	-11.0699
▁grid	-11.0699
▁scores	-11.0702
▁rotat	-11.0712
▁outline	-11.0722
▁soccer	-11.0726
▁commentator	-11.0727
▁offense	-11.0727
▁enforce	-11.0727
▁shin	-11.0735
▁tract	-11.0736
▁sending	-11.0739
▁merge	-11.0746
▁cor	-11.0753
▁dissolv	-11.0753
▁mali	-11.0754
▁cream	-11.0759
▁ernest	-11.0759
▁holland	-11.0763
▁lecture	-11.0764
▁rick	-11.077
▁marble	-11.0773
▁wwi	-11.0775
▁lucas	-11.0777
▁regulat	-11.0779
▁belonging	-11.0782
craft	-11.0786
▁bolshevik	-11.0791
▁pride	-11.0794
▁kin	-11.0799
▁cole	-11.08
▁flows	-11.08
aux	-11.0809
▁rica	-11.0809
▁pot	-11.0814
▁chapel	-11.0816
ii	-11.0818
▁ecuador	-11.0822
▁acceleration	-11.0825
▁hay	-11.0826
▁bubble	-11.0827
▁nick	-11.0834
▁geolog	-11.0838
▁elementar	-11.0847
▁bead	-11.0848
▁macro	-11.0848
▁notorious	-11.0856
▁definitive	-11.0856
ul	-11.0862
▁voiced	-11.0867
▁accidental	-11.0873
ot	-11.0879
▁imprison	-11.0888
▁cosmic	-11.0889
ther	-11.089
▁punch	-11.0899
▁forever	-11.0906
▁blend	-11.0907
▁bills	-11.0911
▁governmental	-11.0921
▁renown	-11.0922
▁assassinat	-11.0922
▁lynch	-11.0925
▁ease	-11.0929
▁sung	-11.0931
▁twist	-11.0935
▁pseudo	-11.0938
▁converse	-11.0939
▁ai	-11.0943
▁algeria	-11.0944
▁bug	-11.0947
▁reasonable	-11.095
ept	-11.0952
▁exhaust	-11.0954
▁approximation	-11.0955
▁flute	-11.0955
▁generator	-11.0956
▁diplomat	-11.0959
▁looks	-11.096
▁ions	-11.0963
▁consum	-11.0965
▁glas	-11.0966
▁witch	-11.0969
▁equatori	-11.097
▁methodist	-11.0972
▁psi	-11.0976
▁cur	-11.0976
▁intentional	-11.0981
▁regain	-11.0988
▁drain	-11.0988
▁eg	-11.0989
▁updat	-11.0989
▁pointed	-11.099
▁mapping	-11.0991
▁resolv	-11.0994
▁trilog	-11.0996
▁semantic	-11.0998
▁handl	-11.1008
▁arena	-11.1011
▁emerge	-11.1017
▁dean	-11.1017
▁rhine	-11.102
▁habsburg	-11.1021
▁conductor	-11.1024
▁mari	-11.1025
▁calci	-11.1025
▁punish	-11.1026
he	-11.1027
▁monks	-11.1034
▁signing	-11.1034
▁rendering	-11.1035
▁mice	-11.1041
▁cambodia	-11.1043
art	-11.1047
▁mitchel	-11.1048
▁masters	-11.1052
▁semiconductor	-11.1054
▁decisive	-11.1054
▁lovecraft	-11.1055
▁populations	-11.1057
▁placing	-11.1059
▁cruiser	-11.106
▁reporter	-11.1076
▁atmospher	-11.1078
▁harp	-11.108
▁malta	-11.108
▁clown	-11.1083
▁button	-11.1086
▁aberdeen	-11.1087
▁arnold	-11.1087
▁mortal	-11.1087
▁welfar	-11.1088
magne	-11.109
▁alloy	-11.1094
▁tin	-11.1096
▁passive	-11.1099
▁ambassador	-11.1107
▁advisor	-11.1112
▁reich	-11.1113
▁censor	-11.1113
▁inning	-11.1114
▁centers	-11.1115
▁phonetic	-11.1119
▁soundtrack	-11.1121
▁topological	-11.1122
▁bowie	-11.1122
▁exhibition	-11.1124
▁smoke	-11.1124
▁timber	-11.1125
▁hal	-11.1125
▁sicil	-11.1129
stone	-11.1129
▁michel	-11.1135
▁organis	-11.1137
▁worse	-11.1146
▁gps	-11.1149
▁nile	-11.115
rix	-11.115
▁ze	-11.1151
▁penguin	-11.1154
▁puerto	-11.1154
▁heinrich	-11.1154
▁neutron	-11.1155
▁moor	-11.116
▁cal	-11.1161
ica	-11.1166
▁guatemala	-11.1177
▁tolkien	-11.1188
▁folklore	-11.1188
▁acute	-11.1189
▁grandson	-11.1193
▁mines	-11.1193
▁riding	-11.1194
▁jesuit	-11.1194
▁ois	-11.1195
▁widow	-11.1199
▁lighter	-11.1199
▁calculate	-11.1206
▁necessit	-11.1221
▁vladimir	-11.1222
▁utility	-11.1222
ful	-11.1224
▁knock	-11.1226
▁defect	-11.1229
▁apostles	-11.1229
▁ro	-11.1229
▁boxer	-11.123
▁marcus	-11.123
▁eds	-11.1231
▁perceive	-11.1232
▁mor	-11.1233
▁impression	-11.1234
half	-11.1237
▁suppose	-11.124
▁autumn	-11.1244
▁proposition	-11.1249
annibal	-11.1253
▁precursor	-11.1255
▁discourse	-11.1256
▁uncommon	-11.1256
▁anonymous	-11.1256
▁specialist	-11.1257
munition	-11.1259
▁ki	-11.126
▁ellis	-11.1261
▁underly	-11.1267
▁passion	-11.1279
▁miscellane	-11.1284
▁portable	-11.1284
worth	-11.1286
▁bold	-11.1287
▁helicopter	-11.1289
▁horizon	-11.1289
▁adequate	-11.1289
▁marking	-11.129
▁overwhelming	-11.129
▁partnership	-11.129
▁expectation	-11.1292
▁foundations	-11.1292
ball	-11.1294
▁submitt	-11.1298
▁tan	-11.1301
▁probe	-11.1309
▁amd	-11.1311
▁spider	-11.1324
▁creek	-11.1324
▁insight	-11.1326
▁pour	-11.1326
oc	-11.1332
▁steppe	-11.1341
▁realize	-11.1342
▁tuning	-11.1343
▁fascism	-11.1358
▁kid	-11.1358
▁airplane	-11.1358
▁evaluation	-11.1359
▁thread	-11.1359
ensis	-11.1361
▁churchill	-11.1363
back	-11.1365
▁chronic	-11.1366
▁gram	-11.1367
▁qualit	-11.1382
▁beast	-11.1385
▁saga	-11.1386
▁delaware	-11.1392
▁jeff	-11.1392
▁lawsuit	-11.1393
▁ninth	-11.1393
▁flaw	-11.1393
▁volcano	-11.1396
▁pit	-11.1397
▁dishe	-11.1401
▁harvest	-11.141
▁hume	-11.1419
▁organs	-11.1421
▁economical	-11.1421
▁investigat	-11.1424
ata	-11.1425
▁anatom	-11.1426
▁hazard	-11.1427
▁genuine	-11.1427
▁steal	-11.1428
▁shorten	-11.1447
▁poly	-11.1449
ise	-11.145
cher	-11.145
▁ren	-11.1454
▁beethoven	-11.1461
▁delegate	-11.1461
▁survivor	-11.1464
▁enact	-11.1464
▁motivation	-11.1465
▁dictator	-11.1467
▁np	-11.147
▁duration	-11.1476
▁hub	-11.1478
▁satan	-11.1484
▁fix	-11.1493
▁outbreak	-11.1496
▁nerve	-11.1497
▁cl	-11.1502
▁victorian	-11.1503
▁fin	-11.1513
▁ic	-11.1523
▁kenya	-11.1525
▁undertake	-11.153
▁leather	-11.1531
▁parody	-11.1531
▁spontaneous	-11.1531
▁reproduction	-11.1531
▁utc	-11.1535
▁lasting	-11.1536
▁melbourn	-11.1536
▁reserved	-11.1549
▁clusters	-11.1552
▁patriot	-11.1556
▁euclide	-11.1556
itis	-11.1557
▁constituent	-11.1566
▁presumabl	-11.1566
▁discrimination	-11.1567
▁papal	-11.1568
▁urge	-11.1568
▁sodium	-11.157
▁pink	-11.1571
ides	-11.1573
▁lu	-11.1576
▁invest	-11.1584
▁thinker	-11.1593
▁lowland	-11.1593
▁cryptograph	-11.1597
▁ivan	-11.1598
▁tsar	-11.1599
▁eggs	-11.16
▁glor	-11.1604
▁irregular	-11.1611
▁amber	-11.1614
▁crush	-11.1614
▁palm	-11.1627
▁cooper	-11.163
osis	-11.1634
▁endanger	-11.1636
▁psychologist	-11.1636
▁teeth	-11.1637
▁playwright	-11.1637
▁gpl	-11.164
ich	-11.1641
▁anthropologist	-11.1642
▁isles	-11.1643
▁hollow	-11.1644
▁mos	-11.1644
▁breeding	-11.1646
▁clement	-11.1647
▁anarcho	-11.1648
drew	-11.1652
▁conceiv	-11.1659
▁cheap	-11.1669
▁biologist	-11.1671
▁subgroup	-11.1672
▁allegation	-11.1672
▁keith	-11.1672
▁sailor	-11.1673
▁lifestyle	-11.1673
▁octave	-11.1673
▁worker	-11.1674
▁oliver	-11.1677
▁funk	-11.1681
▁prohibition	-11.1681
gate	-11.1684
▁examin	-11.1688
▁facilitate	-11.1689
▁strengthen	-11.1693
▁watt	-11.1694
▁harmonica	-11.1695
▁arrow	-11.1701
▁sat	-11.1705
▁episcopal	-11.1705
▁jihad	-11.1706
▁architectural	-11.1707
▁wizard	-11.1707
▁ghana	-11.1707
▁feedback	-11.1707
▁depiction	-11.1713
pa	-11.1716
▁pe	-11.1716
▁ix	-11.1719
▁welcome	-11.1727
▁container	-11.1731
▁spy	-11.1734
▁sur	-11.1735
▁organize	-11.1736
▁gif	-11.1738
▁boats	-11.1741
▁frankfurt	-11.1743
▁cologne	-11.1743
▁hostile	-11.1743
▁detective	-11.1745
▁wireless	-11.1745
▁faithful	-11.1745
▁recommendation	-11.1746
▁toll	-11.1748
▁facto	-11.1748
enberg	-11.176
ingham	-11.1761
ovich	-11.1762
▁boost	-11.1762
▁projection	-11.1764
▁infrared	-11.1778
▁tribunal	-11.1778
▁hamlet	-11.1778
▁cypriot	-11.1778
▁wildlife	-11.1779
▁giovanni	-11.1779
▁cancell	-11.1783
▁johannes	-11.179
▁champions	-11.1797
di	-11.1802
▁indonesian	-11.1803
▁pounds	-11.1803
▁gabriel	-11.1804
▁lou	-11.1805
▁ward	-11.1806
▁eighth	-11.1807
▁automat	-11.1813
▁thorough	-11.1814
▁mystic	-11.1814
▁madison	-11.1814
▁pixel	-11.1815
▁activat	-11.1815
▁formulation	-11.1816
▁upgrade	-11.1827
me	-11.1828
▁ethanol	-11.1828
▁herald	-11.1829
▁kit	-11.1845
▁bore	-11.1848
▁asimov	-11.185
▁plates	-11.1851
▁crick	-11.1852
▁inheritance	-11.1852
▁topolog	-11.1852
▁accusation	-11.1854
▁pal	-11.186
▁nest	-11.1867
▁tons	-11.1867
▁mt	-11.1873
▁malt	-11.1878
▁deficit	-11.1886
▁yahwe	-11.1886
▁flesh	-11.1886
▁specify	-11.1886
▁miracle	-11.1886
▁jason	-11.1887
▁dracul	-11.1887
▁thailand	-11.1888
▁reef	-11.1888
▁vincent	-11.1888
▁alex	-11.1892
▁fuller	-11.1897
▁correction	-11.1899
▁reviv	-11.1903
▁ag	-11.1904
tis	-11.1909
▁commit	-11.1913
▁skeptic	-11.1915
▁parker	-11.1917
▁julia	-11.1922
▁dennis	-11.1923
▁ernst	-11.1924
▁diminish	-11.1931
▁jewel	-11.1932
▁iq	-11.1935
▁wet	-11.1943
▁seiz	-11.1948
acea	-11.1955
▁cp	-11.1959
▁addiction	-11.1959
▁tamil	-11.196
▁rabbinic	-11.196
▁lions	-11.1961
▁barcelon	-11.1962
▁warren	-11.1963
▁henri	-11.1964
fish	-11.1968
▁hamburg	-11.1974
▁sc	-11.1975
▁marc	-11.1975
▁flourish	-11.1977
▁malay	-11.1989
▁lectures	-11.1992
▁hegel	-11.1994
▁conjunction	-11.1995
▁depart	-11.1999
▁commoditi	-11.1999
▁bytes	-11.2
▁rubber	-11.2001
▁torture	-11.2003
▁jon	-11.2003
▁carlos	-11.2008
▁tech	-11.2009
ang	-11.2011
▁hms	-11.2016
▁nu	-11.2017
▁derivatives	-11.2017
▁israelite	-11.2019
▁rover	-11.2019
▁angola	-11.2021
▁alfons	-11.2026
▁afford	-11.2026
chi	-11.2028
▁simplifie	-11.2031
▁acronym	-11.2032
▁adelaide	-11.2032
▁voluntary	-11.2032
▁assessment	-11.2032
▁vendor	-11.2032
▁resurrection	-11.2033
▁brandenburg	-11.2033
▁counts	-11.2033
▁estonian	-11.2046
▁duplicate	-11.2048
▁shoulder	-11.205
▁gang	-11.2052
▁thatcher	-11.2054
▁mud	-11.2055
▁ff	-11.2059
▁purple	-11.2069
▁bachelor	-11.2069
▁dictatorship	-11.2069
▁cornish	-11.2071
strong	-11.2075
▁obscure	-11.2076
▁operat	-11.2083
grad	-11.2099
▁challeng	-11.21
▁clarke	-11.2105
▁artifact	-11.2106
▁immense	-11.2106
▁humorous	-11.2107
▁mankind	-11.2107
▁abbreviat	-11.2112
▁cubic	-11.2118
▁beatles	-11.2126
▁embassy	-11.213
▁objection	-11.2136
▁helping	-11.2139
▁corrupt	-11.2141
▁nt	-11.2141
▁atoll	-11.2144
▁regent	-11.2145
▁oath	-11.2147
▁attendance	-11.2147
▁hereditar	-11.2159
▁manifest	-11.217
▁extraordinar	-11.2171
▁kennet	-11.2173
▁hp	-11.2174
▁intensit	-11.2176
▁copenhagen	-11.218
▁undergraduate	-11.218
▁dwarf	-11.218
▁brooklyn	-11.218
▁inclusion	-11.218
▁inevitabl	-11.2181
▁indie	-11.2184
int	-11.2185
▁nix	-11.2186
▁ur	-11.2186
▁displays	-11.2187
▁drake	-11.2189
▁drums	-11.2189
▁voices	-11.2191
▁provisional	-11.2201
▁mauric	-11.2204
▁val	-11.2208
having	-11.2212
▁pace	-11.2213
▁acquisition	-11.2217
q	-11.2217
▁posthumous	-11.2217
▁nowaday	-11.2217
▁damasc	-11.222
▁mod	-11.2221
▁bobby	-11.2223
▁experienc	-11.2225
ba	-11.223
ker	-11.2242
▁hack	-11.2243
▁planes	-11.2245
ara	-11.2248
▁antioch	-11.2254
▁modify	-11.2255
▁interstate	-11.2255
▁happens	-11.2256
▁ukrainian	-11.2256
▁exit	-11.2259
▁attractive	-11.2259
▁butler	-11.226
▁nose	-11.2261
▁bid	-11.2262
▁mg	-11.2263
▁tel	-11.2265
▁graduat	-11.2268
sey	-11.2269
▁suffix	-11.2278
▁informed	-11.228
▁wool	-11.2281
▁mil	-11.2282
ette	-11.2284
▁habitat	-11.2291
▁wimbledon	-11.2292
▁grandfather	-11.2292
ac	-11.2293
▁accordance	-11.2294
▁bend	-11.231
▁fallac	-11.231
▁shopp	-11.2311
▁boss	-11.2312
▁sack	-11.2316
▁speeds	-11.2317
▁clan	-11.2324
▁refuge	-11.2325
▁prosecution	-11.233
▁gaelic	-11.2331
▁determination	-11.2332
▁justification	-11.2334
▁evolve	-11.2335
▁chat	-11.2336
ence	-11.234
▁gor	-11.2349
▁symmetr	-11.2363
▁loved	-11.2363
▁optional	-11.2364
▁accompany	-11.2368
▁convenient	-11.2368
▁gnome	-11.2368
▁garfield	-11.2368
▁nervous	-11.2368
▁utah	-11.2369
▁smok	-11.2379
▁demons	-11.238
▁lighting	-11.2382
▁contend	-11.2385
ger	-11.2395
▁periodical	-11.2401
▁saturn	-11.2406
▁carnegie	-11.2406
ster	-11.2411
▁rope	-11.2412
▁rejection	-11.2415
▁weigh	-11.2415
▁khazar	-11.2422
▁earning	-11.2423
▁eritrea	-11.2433
▁allah	-11.2443
▁cube	-11.2443
▁dirt	-11.2444
▁mussolini	-11.2444
▁constituenc	-11.2444
▁mpeg	-11.2444
▁casualt	-11.2449
orum	-11.2451
▁jedi	-11.2452
▁eta	-11.2457
▁diagnosi	-11.246
ious	-11.2462
▁interfere	-11.2472
tan	-11.2473
▁carol	-11.2474
▁talmud	-11.2476
▁loud	-11.2476
▁bb	-11.2477
▁byte	-11.248
▁clarinet	-11.248
▁disagree	-11.2481
▁brunswick	-11.2482
▁peirce	-11.2483
▁bipolar	-11.2483
▁britannica	-11.2484
▁outstanding	-11.2484
ture	-11.2485
▁installation	-11.2486
▁destroyer	-11.2489
tus	-11.2491
▁burns	-11.2495
▁treasure	-11.25
▁latvian	-11.2502
▁exceptional	-11.2504
▁bohemia	-11.251
▁tries	-11.2516
▁ballad	-11.2519
▁ironical	-11.2519
▁preservation	-11.2521
▁presley	-11.2521
▁kinetic	-11.2523
▁constraint	-11.2526
▁bj	-11.253
▁fruits	-11.2547
▁deiti	-11.2549
▁jokes	-11.255
▁stance	-11.255
▁humanist	-11.2554
▁waters	-11.2555
▁augustine	-11.2557
▁quad	-11.2558
▁bacon	-11.2561
▁paradise	-11.2563
▁textbook	-11.2563
▁composite	-11.2566
▁villain	-11.257
▁czechoslovakia	-11.2572
▁acknowledg	-11.2575
▁wonder	-11.258
▁bridges	-11.2588
▁gem	-11.2588
▁induc	-11.2593
▁mk	-11.2594
▁sick	-11.2594
▁jain	-11.2596
▁seminar	-11.2597
▁messenger	-11.2598
▁angles	-11.2598
▁flew	-11.26
▁quotation	-11.26
fer	-11.2607
▁aged	-11.2612
▁scotia	-11.2613
▁serb	-11.2614
▁senators	-11.2614
▁hendri	-11.2621
▁brick	-11.2622
▁poster	-11.2628
▁zoo	-11.2629
▁emil	-11.2633
▁remnant	-11.2637
▁casino	-11.2637
▁roof	-11.2637
▁powell	-11.2638
▁recipe	-11.264
▁ye	-11.264
▁corpus	-11.2641
▁loyalt	-11.2643
▁lorenz	-11.2647
▁ceo	-11.2647
▁mrs	-11.2655
▁lithi	-11.2656
▁rent	-11.2657
▁telegraph	-11.2658
▁trac	-11.267
▁lloyd	-11.2676
▁vatican	-11.2676
▁joshua	-11.2676
▁mysterious	-11.2676
▁investor	-11.2677
▁meme	-11.2677
▁fortress	-11.2679
▁humanit	-11.268
▁buffer	-11.268
▁monday	-11.2682
▁filmmaker	-11.2684
dale	-11.2688
▁yard	-11.2691
▁thermodynamic	-11.2693
▁encode	-11.2701
▁talks	-11.2704
▁liberia	-11.2705
▁span	-11.2712
▁ralph	-11.2715
wide	-11.2716
▁lacking	-11.2718
▁equivalence	-11.2718
▁jerom	-11.2718
▁diode	-11.2718
▁xp	-11.2729
▁margin	-11.2731
▁null	-11.2732
▁chains	-11.2736
iah	-11.2737
▁booth	-11.2747
▁examine	-11.2753
▁fleming	-11.2755
▁condom	-11.2755
▁hook	-11.2757
▁pittsburg	-11.276
▁marshal	-11.2764
▁counting	-11.2768
ski	-11.2769
▁wi	-11.2771
▁esa	-11.2774
▁nice	-11.2775
coming	-11.2776
▁choos	-11.2779
▁balls	-11.278
▁mature	-11.2783
kin	-11.2784
▁sentiment	-11.2785
▁magical	-11.279
▁cricketer	-11.2792
▁htm	-11.2793
▁revenge	-11.2794
▁monaco	-11.2794
▁ethernet	-11.2794
▁seizure	-11.2794
▁seattle	-11.2795
▁dreams	-11.2796
▁breton	-11.2796
▁conversation	-11.2799
▁pub	-11.2806
chester	-11.2806
▁cam	-11.2811
▁alt	-11.2819
▁kashmir	-11.2822
▁dia	-11.2826
ex	-11.283
▁silence	-11.283
▁aryan	-11.2834
▁tobacco	-11.2834
▁abundant	-11.2834
▁celestial	-11.2834
▁quarterback	-11.2834
▁impressive	-11.2835
▁conviction	-11.2837
▁township	-11.2837
▁indication	-11.2838
▁expectanc	-11.284
together	-11.2843
▁overcome	-11.2857
ab	-11.2858
▁cord	-11.2861
▁mach	-11.2866
▁batt	-11.2866
▁ultra	-11.2867
▁spice	-11.2867
▁eisenhower	-11.2874
▁nephew	-11.2874
▁feminism	-11.2874
▁paperback	-11.2875
▁motivat	-11.2875
▁cosmolog	-11.2876
▁hopkins	-11.2883
▁forgotten	-11.2885
homa	-11.2902
▁integr	-11.2904
▁vega	-11.2904
▁nov	-11.2906
▁mozambi	-11.2914
▁auxiliar	-11.2914
hi	-11.2914
▁flemis	-11.2915
▁telling	-11.2917
▁uni	-11.2917
▁lsd	-11.2918
▁refin	-11.2918
▁scout	-11.2919
▁sharon	-11.293
▁cloth	-11.2941
▁enigma	-11.2952
▁mandarin	-11.2954
▁premise	-11.2955
▁fierce	-11.2956
▁berber	-11.2956
▁cartoonist	-11.2956
▁issu	-11.2956
▁strategie	-11.2957
▁leak	-11.2957
ipv	-11.2963
▁duchy	-11.297
span	-11.2971
▁poetic	-11.2974
tra	-11.2978
nt	-11.2978
▁venture	-11.2989
▁bu	-11.299
▁troy	-11.2992
▁medication	-11.2994
▁innocent	-11.2994
▁frankenstein	-11.2994
▁harve	-11.2995
▁hostilit	-11.2995
▁pistol	-11.2996
▁behave	-11.2998
▁den	-11.3001
▁mint	-11.3003
▁kai	-11.3006
▁brewer	-11.3007
▁transcription	-11.3007
▁dri	-11.3007
▁foods	-11.3009
lly	-11.3011
▁proprieta	-11.3012
▁prepare	-11.3015
▁arabian	-11.3017
aiah	-11.3019
▁knot	-11.3022
▁chase	-11.3022
▁triumph	-11.3024
▁maine	-11.3027
▁puzzle	-11.3031
▁supernatural	-11.3035
▁gutenberg	-11.3035
▁shuttle	-11.3035
▁disagreement	-11.3035
▁modest	-11.3036
▁dodger	-11.3038
▁analogous	-11.3038
▁assyrian	-11.304
ji	-11.304
▁heracle	-11.3046
▁petition	-11.3055
▁shots	-11.306
▁hawaiian	-11.3064
▁hemingway	-11.3075
▁admission	-11.3075
▁employer	-11.3076
▁judgement	-11.308
▁manufactur	-11.3081
▁shaft	-11.3081
▁friday	-11.3082
▁oz	-11.3086
cock	-11.3088
▁banner	-11.3088
tory	-11.3091
▁ecolog	-11.3092
▁distill	-11.3093
▁escap	-11.3097
▁oriental	-11.3097
▁chips	-11.3099
▁equator	-11.3099
▁utiliz	-11.3101
▁spiral	-11.3101
▁conform	-11.3104
▁secur	-11.3106
▁dish	-11.3112
▁burst	-11.3113
▁owing	-11.3114
▁reconstruct	-11.3114
▁allegiance	-11.3116
▁messiah	-11.3116
▁herzegovina	-11.3117
▁outlaw	-11.3118
▁treasur	-11.3119
▁monkey	-11.3119
▁translator	-11.312
▁qu	-11.3124
▁presid	-11.3126
▁astrolog	-11.3134
▁pierce	-11.3134
▁bombs	-11.3136
ram	-11.3138
▁fantastic	-11.3139
▁reside	-11.3139
▁ballot	-11.3141
▁discharge	-11.3142
▁silicon	-11.3147
▁idaho	-11.3157
▁mathrm	-11.3157
▁theatrical	-11.3157
▁viewpoint	-11.3158
▁ecclesiastical	-11.3159
▁sided	-11.3163
▁venus	-11.3166
▁cipher	-11.3166
▁mistaken	-11.3171
▁friedman	-11.3172
ten	-11.3174
▁dominan	-11.3174
▁colt	-11.3174
▁focuse	-11.3176
▁guam	-11.3182
▁mus	-11.3182
▁boas	-11.3182
▁achilles	-11.3182
bi	-11.3182
▁balkan	-11.3184
nfc	-11.3186
▁elf	-11.3188
▁tat	-11.3188
▁speeches	-11.3191
▁dies	-11.3194
▁kiss	-11.3195
▁fiji	-11.3195
▁persist	-11.3197
▁empress	-11.3198
▁limestone	-11.3198
▁kabul	-11.3199
▁arsenal	-11.3199
▁exponential	-11.3199
▁contradiction	-11.32
▁hull	-11.3201
▁gerald	-11.3203
▁shut	-11.3206
▁audi	-11.3211
▁hydro	-11.322
▁tactical	-11.3225
▁smart	-11.3228
▁enhance	-11.3229
▁drag	-11.3231
eous	-11.3235
▁fever	-11.3238
cc	-11.3239
▁suspension	-11.324
▁hank	-11.324
▁indicator	-11.3241
▁bnp	-11.3242
▁modulation	-11.3242
▁hurt	-11.3243
▁athenian	-11.3244
▁prague	-11.3245
▁hide	-11.3246
▁chilean	-11.3247
▁rna	-11.3248
▁realistic	-11.3249
▁immortal	-11.3253
▁gott	-11.3258
▁continuation	-11.3261
▁odyssey	-11.3267
▁rays	-11.3274
▁lim	-11.3276
▁prophecy	-11.3281
▁hitchcock	-11.3281
▁qualify	-11.3281
▁balloon	-11.3281
▁euler	-11.3282
▁lightning	-11.3283
▁skull	-11.3284
▁reluctant	-11.3284
▁leto	-11.3288
▁healthy	-11.329
▁parity	-11.3291
▁admit	-11.3294
▁encompass	-11.3295
▁bag	-11.3303
enburg	-11.3304
▁heroin	-11.3304
▁photon	-11.3304
▁ja	-11.3305
the	-11.3306
mmy	-11.3316
▁imaginar	-11.3318
▁bats	-11.332
▁montenegr	-11.3321
▁convey	-11.3322
▁kde	-11.3322
▁pianist	-11.3323
▁specimen	-11.3323
▁rigid	-11.3323
▁fractal	-11.3324
▁timor	-11.3325
▁gur	-11.3325
▁rogers	-11.3325
▁guin	-11.3326
▁fe	-11.3326
▁warn	-11.3327
▁domination	-11.3329
▁emphasiz	-11.3332
▁pupil	-11.3333
beth	-11.3335
▁cure	-11.3336
mar	-11.3339
▁pulse	-11.3342
▁luck	-11.3342
▁pointer	-11.3344
▁vulnerab	-11.3352
▁gal	-11.336
▁hudson	-11.3365
▁coronation	-11.3365
▁scenario	-11.3365
▁sermon	-11.3365
▁sol	-11.3368
▁circus	-11.3368
▁hamas	-11.337
▁gnostic	-11.3371
▁tolerance	-11.3372
▁failing	-11.3373
▁seeming	-11.3374
▁leonard	-11.338
▁steady	-11.3383
▁hu	-11.3383
▁illustrate	-11.3384
▁negotiat	-11.3388
▁fl	-11.3399
mortality	-11.3402
▁malawi	-11.3403
▁investigate	-11.3404
▁paradigm	-11.3406
▁subdivision	-11.3407
▁sinatra	-11.3407
▁hello	-11.3407
▁reactor	-11.3408
▁flexible	-11.341
▁oxidati	-11.3411
▁lung	-11.3412
▁scandinavian	-11.3416
▁memorie	-11.3417
▁homo	-11.3421
▁freeway	-11.3422
▁regulate	-11.3422
▁bottle	-11.3426
▁editors	-11.3428
▁charity	-11.3435
▁cruise	-11.3438
▁gambl	-11.3439
▁microscope	-11.3439
▁advocat	-11.344
▁mongolia	-11.344
▁sink	-11.3441
▁desir	-11.3446
▁jaguar	-11.3449
▁agenda	-11.3449
▁dianetic	-11.3449
▁monastic	-11.3449
▁mason	-11.3449
▁encryption	-11.345
▁absorption	-11.345
▁ideological	-11.345
▁gi	-11.345
▁canton	-11.3452
▁manuel	-11.3452
▁mel	-11.3454
▁logarithm	-11.3458
▁storyline	-11.3459
beit	-11.3463
▁retail	-11.3466
tooth	-11.3466
▁morse	-11.3467
▁motto	-11.3471
▁cue	-11.3472
▁adapt	-11.3478
▁complain	-11.3481
▁susan	-11.3487
▁pregnanc	-11.349
▁exodus	-11.3491
▁qaeda	-11.3491
▁recurr	-11.3492
▁malaria	-11.3496
▁ol	-11.3497
▁versa	-11.3499
▁manifesto	-11.35
ll	-11.3502
▁practic	-11.3504
▁vampire	-11.3507
▁complement	-11.3508
▁ke	-11.351
▁celebrity	-11.3511
▁fault	-11.3512
▁aw	-11.3513
▁pray	-11.3515
▁pos	-11.3516
▁hermann	-11.3521
▁tar	-11.3521
▁mennonite	-11.3534
▁obstacle	-11.3534
▁okla	-11.3534
▁erosion	-11.3535
long	-11.3536
▁textile	-11.3537
▁detection	-11.3539
how	-11.354
omorphic	-11.354
▁kirk	-11.354
▁morrison	-11.3545
▁traveling	-11.3548
▁freed	-11.3549
▁lyon	-11.355
ath	-11.3556
▁capitol	-11.3559
▁trader	-11.3561
▁tele	-11.3564
▁exert	-11.3568
▁archer	-11.3571
▁gaming	-11.3572
▁inferior	-11.3576
▁lennon	-11.3578
▁archaeolog	-11.3578
▁imagine	-11.3578
▁fo	-11.3579
▁discard	-11.3579
▁pathway	-11.3579
▁soap	-11.3581
caine	-11.3586
▁parks	-11.3588
▁continual	-11.3592
▁luc	-11.3596
▁harder	-11.3602
▁byron	-11.3604
▁jail	-11.3606
▁stake	-11.3606
▁gaza	-11.3607
pc	-11.3613
▁rob	-11.3614
▁wittgenstein	-11.3619
▁sculptor	-11.3619
▁catalyst	-11.3622
▁nominee	-11.3623
ci	-11.3627
▁concentrate	-11.3629
▁wishe	-11.3629
▁tenth	-11.3629
▁innovat	-11.3629
▁subsid	-11.3634
▁pg	-11.3634
▁rev	-11.3635
▁profession	-11.3638
▁lp	-11.3638
▁acknowledge	-11.3643
tant	-11.3648
▁pronoun	-11.3653
hu	-11.3653
▁interpreter	-11.3654
▁inland	-11.3655
▁digest	-11.3655
▁brew	-11.3658
tta	-11.3659
▁eddie	-11.3663
valence	-11.3663
▁isolation	-11.3664
▁ashes	-11.3665
▁intensive	-11.3666
▁coil	-11.3669
▁penn	-11.3672
▁fee	-11.368
▁naked	-11.3685
▁honorar	-11.3693
▁squad	-11.3693
▁blame	-11.3697
▁ya	-11.37
▁minneapoli	-11.3706
▁inquisition	-11.3706
▁junction	-11.3706
▁drift	-11.3708
▁assignment	-11.3709
▁cement	-11.3711
▁selective	-11.3711
▁contributor	-11.3713
▁elevat	-11.372
▁disciples	-11.3722
▁dis	-11.3722
▁thrust	-11.3725
▁nobles	-11.3728
▁tough	-11.3729
fax	-11.3729
▁kart	-11.373
▁viking	-11.3732
ue	-11.3733
▁metaphysic	-11.3739
▁marginal	-11.3742
▁lateral	-11.3744
▁prevalent	-11.3749
▁anxiet	-11.3749
▁helmet	-11.3749
▁precipitation	-11.375
▁modell	-11.3751
▁ferry	-11.3755
▁dharma	-11.3757
▁xiv	-11.3759
▁discograph	-11.3762
▁metallica	-11.3762
▁historie	-11.3764
▁festivals	-11.3767
▁luis	-11.3773
▁frames	-11.3774
▁broadcaster	-11.3777
▁ammonia	-11.3779
▁finn	-11.378
▁confession	-11.3783
▁parade	-11.3783
▁sim	-11.3784
▁displac	-11.3789
▁qualifie	-11.3791
▁flip	-11.3793
▁brunei	-11.3793
▁transistor	-11.3793
▁charlotte	-11.3793
▁mainframe	-11.3793
▁inform	-11.3796
▁texture	-11.3797
stream	-11.3801
▁indoor	-11.3805
▁fraud	-11.3806
▁ensu	-11.3809
▁healing	-11.3814
▁budd	-11.3814
ella	-11.3817
▁admir	-11.3818
▁hawk	-11.3821
▁nigeria	-11.3827
tv	-11.3834
▁garrison	-11.3837
▁gateway	-11.3838
▁greenhouse	-11.3839
▁embrace	-11.384
ita	-11.3842
▁rat	-11.3844
eus	-11.3844
▁induction	-11.385
ok	-11.3851
▁ethiopian	-11.3859
▁benea	-11.3867
▁cone	-11.3872
▁prey	-11.3879
▁confront	-11.3879
▁angular	-11.3881
▁monte	-11.3881
▁spawn	-11.3881
▁masculine	-11.3881
▁montgomery	-11.3881
▁thumb	-11.3882
▁ecological	-11.3882
▁handbook	-11.3883
▁radius	-11.3885
don	-11.3886
▁bassist	-11.389
▁derivation	-11.3891
▁rally	-11.3894
▁crack	-11.3902
▁usd	-11.3906
pp	-11.391
▁dom	-11.3912
▁lanka	-11.3912
▁assassin	-11.3918
▁ink	-11.392
▁ascend	-11.3922
▁prospect	-11.3924
▁sabbath	-11.3926
▁simulation	-11.3926
▁resignation	-11.393
▁piercing	-11.3931
▁thai	-11.3932
ent	-11.3941
▁bars	-11.3942
world	-11.3951
▁counsel	-11.3954
▁unpa	-11.3955
▁chest	-11.3957
▁echo	-11.3958
▁analytic	-11.396
▁microprocessor	-11.3968
▁puppet	-11.3969
▁haydn	-11.3971
▁ordain	-11.3971
▁justifi	-11.3973
▁authoritarian	-11.3981
▁bolivia	-11.3989
▁blast	-11.3992
▁conrad	-11.3998
▁armenia	-11.4004
▁silk	-11.4007
▁crude	-11.401
▁timing	-11.4011
burn	-11.4013
▁dickens	-11.4015
▁unexpected	-11.4016
▁feminine	-11.4017
▁dayton	-11.4026
▁fundamentalist	-11.4026
▁saul	-11.4027
▁gil	-11.4028
▁planetar	-11.4028
▁burden	-11.4029
▁flights	-11.403
▁shaw	-11.4031
▁soup	-11.4032
▁aug	-11.4033
▁motive	-11.4033
temperate	-11.4033
▁cavit	-11.4034
▁colours	-11.4035
▁berg	-11.4037
▁licensing	-11.4041
wick	-11.4045
▁conditional	-11.4048
▁antony	-11.4052
lo	-11.4053
▁denot	-11.4053
▁discusse	-11.4054
▁luthor	-11.4059
▁infamous	-11.4059
▁mauritiu	-11.4059
▁tariff	-11.4059
▁oracle	-11.4059
▁imprisonment	-11.406
eanor	-11.4061
▁requests	-11.4063
tu	-11.4064
▁battlefield	-11.4066
▁coral	-11.4066
▁eden	-11.4068
▁devis	-11.407
▁fitte	-11.407
▁av	-11.4073
▁closing	-11.4075
ane	-11.4077
▁obey	-11.4081
▁rivalr	-11.4085
▁visibl	-11.4087
▁freight	-11.4087
▁psycho	-11.4088
▁studi	-11.4088
▁propose	-11.4094
▁titan	-11.4095
▁societi	-11.4099
▁drove	-11.4101
▁eugenic	-11.4102
▁tributar	-11.4104
▁closure	-11.4104
▁sqrt	-11.4105
▁ensemble	-11.4107
▁zappa	-11.4107
▁adherent	-11.4107
▁sar	-11.4113
▁rhyme	-11.4118
ei	-11.4121
▁prone	-11.4122
▁airway	-11.4126
▁warriors	-11.4127
▁upward	-11.4131
▁benz	-11.4132
▁imag	-11.4133
▁spite	-11.4136
▁ithaca	-11.4138
▁venezuela	-11.4139
▁gel	-11.4142
▁eva	-11.4142
▁falcon	-11.4143
▁fingers	-11.4144
▁marsh	-11.4147
▁protagonist	-11.4149
▁sierra	-11.4149
▁macdonald	-11.4149
▁carthage	-11.4149
▁militant	-11.4149
▁connotation	-11.4149
▁khmer	-11.4149
▁eligib	-11.415
▁vegetarian	-11.4151
▁devon	-11.4156
▁breast	-11.4157
related	-11.4159
▁lineage	-11.4166
▁disco	-11.4171
down	-11.4172
▁ace	-11.4174
do	-11.4177
▁hood	-11.4177
▁conceptual	-11.418
▁ak	-11.4181
▁tao	-11.4181
data	-11.4184
▁fabric	-11.4191
▁brilliant	-11.4195
▁gibson	-11.4195
▁registration	-11.4196
▁circulation	-11.4196
▁engagement	-11.4197
▁peel	-11.4199
▁assertion	-11.4201
▁beck	-11.4201
▁itu	-11.4211
▁mer	-11.4214
▁beef	-11.4216
gen	-11.4228
▁trends	-11.4229
▁dante	-11.4231
▁accelerat	-11.424
▁unpopular	-11.424
▁pepper	-11.4241
▁barbarian	-11.4243
▁elimination	-11.4244
▁authoriz	-11.4253
nik	-11.4254
▁amend	-11.4256
▁lend	-11.4259
▁compatibilit	-11.4264
▁confin	-11.4276
▁pyramid	-11.4276
ron	-11.4283
▁schwarzenegg	-11.4286
▁cairo	-11.4287
▁eiffel	-11.4287
▁favourite	-11.4288
▁evans	-11.429
mi	-11.4291
▁bankruptcy	-11.4291
▁guideline	-11.4294
▁colonization	-11.4295
▁crusader	-11.4296
▁recreational	-11.4298
ved	-11.4298
▁wax	-11.43
▁addressing	-11.4301
▁char	-11.4301
tercourse	-11.4305
▁accession	-11.4308
▁cello	-11.4311
▁contra	-11.4312
▁fees	-11.4316
▁alchem	-11.4319
▁apostolic	-11.4319
▁rebuil	-11.4328
▁melod	-11.4328
▁aerial	-11.4333
▁handled	-11.4334
egean	-11.4341
▁diary	-11.4344
dp	-11.4346
▁marxism	-11.4347
▁clash	-11.4347
▁criticis	-11.4348
▁foul	-11.4354
▁pipeline	-11.4358
om	-11.4359
▁das	-11.4367
▁esoteric	-11.4369
▁brutal	-11.4371
▁contradict	-11.4375
▁mate	-11.4375
▁ver	-11.4375
▁mushroom	-11.4379
▁vegetation	-11.4379
▁proclamation	-11.4379
▁intersection	-11.4379
▁peripheral	-11.438
▁geoffre	-11.4381
▁stall	-11.4383
▁gland	-11.4389
ference	-11.4392
▁patch	-11.4395
▁waterway	-11.4398
▁formulat	-11.4405
▁esp	-11.4407
▁invade	-11.4414
▁dns	-11.4414
▁font	-11.4418
▁castil	-11.442
▁steep	-11.4422
▁confucian	-11.4423
▁affirm	-11.4423
▁compulsor	-11.4425
▁fitzgerald	-11.4425
▁marilyn	-11.4425
▁congressional	-11.4425
▁chiang	-11.4426
▁approve	-11.4427
▁predator	-11.4427
▁manifestation	-11.4427
▁exclude	-11.4429
born	-11.4429
▁chronolog	-11.4431
▁wive	-11.4432
▁skat	-11.4433
▁dissolve	-11.4433
sson	-11.4433
▁kyot	-11.4437
▁pete	-11.4442
▁forums	-11.4443
▁knee	-11.4444
▁recognise	-11.4446
▁bal	-11.4448
ach	-11.4454
▁rounds	-11.446
▁sahara	-11.4461
▁synagogue	-11.4472
▁unesco	-11.4472
▁discourage	-11.4472
▁prominence	-11.4472
▁mikhail	-11.4472
▁gorilla	-11.4472
▁xavier	-11.4472
▁conscription	-11.4473
▁dictionari	-11.4473
▁algae	-11.4475
▁sixteen	-11.4485
▁gui	-11.4485
▁sunni	-11.4486
▁ec	-11.4486
▁cu	-11.4488
▁loch	-11.4489
▁wan	-11.4492
▁dome	-11.4492
band	-11.4494
▁rooms	-11.4495
▁depos	-11.4506
▁jam	-11.4515
▁emitt	-11.4518
▁overlap	-11.4519
▁leipzig	-11.4519
▁mumbai	-11.4519
▁antibiotic	-11.4519
▁ecosystem	-11.4519
▁colloquial	-11.452
▁jungle	-11.4526
▁neuron	-11.4528
▁boast	-11.4532
lix	-11.4532
▁embryo	-11.4534
▁vikings	-11.4547
▁bru	-11.4548
▁verbal	-11.4548
▁shooter	-11.4557
ble	-11.4563
▁synonym	-11.4565
▁shade	-11.4566
▁incarnation	-11.4566
▁kepler	-11.4566
▁mercenar	-11.4566
▁heterosexual	-11.4566
▁homeland	-11.4568
▁diffusion	-11.4569
▁regulator	-11.4569
▁sha	-11.4579
▁conjecture	-11.4579
▁prosperit	-11.4581
▁subjective	-11.4582
▁harper	-11.4589
▁ignore	-11.4591
▁fad	-11.4591
▁odds	-11.4596
▁springs	-11.4597
▁gentle	-11.4597
▁dynamical	-11.46
borough	-11.46
▁va	-11.4608
▁reporting	-11.4608
▁gro	-11.4608
▁lamp	-11.461
▁uncertaint	-11.4611
▁blackadder	-11.4613
▁absent	-11.4613
▁carroll	-11.4614
▁breakdown	-11.4614
▁reception	-11.4615
▁pillar	-11.4615
▁blog	-11.4615
▁morphism	-11.4617
▁sarah	-11.4617
▁montana	-11.462
▁protective	-11.4621
▁mithra	-11.4625
▁beans	-11.4627
▁traged	-11.4628
▁hypnos	-11.4629
▁amazing	-11.4632
▁mip	-11.4636
▁borne	-11.4643
▁subtle	-11.4647
▁bsd	-11.4649
▁owen	-11.4653
▁theodore	-11.4654
▁guards	-11.4658
▁relax	-11.4659
▁pseudonym	-11.466
▁superhero	-11.466
▁eusebi	-11.4661
▁implicit	-11.4661
▁bandwidth	-11.4661
▁edwin	-11.4661
▁ceremonial	-11.4662
▁archaic	-11.4662
▁coptic	-11.4662
▁grail	-11.4662
▁justify	-11.4663
▁seasonal	-11.4668
▁elde	-11.4674
▁priorit	-11.4677
rum	-11.468
▁circulat	-11.4681
▁rag	-11.4687
▁flags	-11.4693
▁carv	-11.4693
▁slovenia	-11.4698
▁neglect	-11.4709
▁dissolution	-11.4709
▁tutorial	-11.4709
▁yeast	-11.4709
▁kidney	-11.4709
▁spatial	-11.4711
▁gabon	-11.4711
▁swamp	-11.4713
▁unification	-11.4713
▁basil	-11.4715
▁herman	-11.4721
▁unstabl	-11.4724
▁populariz	-11.4726
▁cbs	-11.4726
some	-11.4727
▁beating	-11.4735
▁scandinavia	-11.4746
▁scar	-11.4748
▁celt	-11.4752
▁azerbaijan	-11.4755
▁conceal	-11.4757
▁illusion	-11.4757
▁vancouver	-11.4757
▁connor	-11.4758
▁temperament	-11.476
▁lib	-11.476
▁temporal	-11.4772
ura	-11.4773
▁weekend	-11.4775
▁enforc	-11.4775
▁guild	-11.4778
▁anton	-11.4787
▁subordinate	-11.479
▁apostle	-11.4795
▁disrupt	-11.4803
▁fal	-11.4803
▁ambiguous	-11.4805
▁predicate	-11.4805
▁bisexual	-11.4805
▁migrant	-11.4805
▁ambitious	-11.4806
▁noir	-11.4806
▁shallow	-11.4809
▁prehistoric	-11.4809
▁exploitation	-11.4812
▁utter	-11.4814
▁reproduce	-11.4818
▁outward	-11.4819
▁abba	-11.4823
▁electro	-11.4823
▁grip	-11.4826
▁edu	-11.4826
▁header	-11.4835
▁iec	-11.4837
▁nba	-11.4838
▁glen	-11.4839
▁transmit	-11.4841
be	-11.4843
▁twins	-11.4843
▁bloc	-11.4847
▁viewers	-11.4848
▁fourteen	-11.4853
▁judiciar	-11.4854
▁gehrig	-11.4854
▁recursive	-11.4854
▁yahoo	-11.4854
▁dewey	-11.4854
▁rudolf	-11.4854
▁diaspora	-11.4854
▁wu	-11.4854
▁panda	-11.4857
▁merced	-11.4861
▁productive	-11.4877
▁curtis	-11.4883
▁bigger	-11.4886
▁marker	-11.4887
▁axe	-11.4891
uk	-11.4891
▁ru	-11.4893
▁rn	-11.4899
sch	-11.4899
▁allan	-11.4899
▁quit	-11.4901
▁madagascar	-11.4903
▁nutrient	-11.4903
▁southwestern	-11.4903
▁banana	-11.4903
▁anchorage	-11.4904
▁phoneme	-11.4904
▁frisian	-11.4904
▁spike	-11.4905
▁buck	-11.4906
▁frost	-11.4906
▁cameo	-11.4907
▁kurdis	-11.491
▁omitt	-11.4912
▁diocese	-11.4918
▁trio	-11.4918
▁kath	-11.4922
▁emine	-11.4925
▁georgian	-11.4926
▁methodolog	-11.4928
▁patrol	-11.4935
▁sq	-11.4939
▁sensation	-11.494
▁temper	-11.4941
literacy	-11.4948
▁abd	-11.4948
▁cervant	-11.4952
▁smell	-11.4952
▁subsidiar	-11.4952
rew	-11.4954
▁meaningful	-11.4954
▁joyce	-11.4955
▁observator	-11.4956
▁cry	-11.4957
▁drought	-11.496
▁analytical	-11.4963
▁violat	-11.4963
▁curse	-11.4964
fall	-11.4964
▁outlet	-11.4966
▁portrayal	-11.4967
▁arrows	-11.4968
▁disabilit	-11.4971
▁breath	-11.4972
ong	-11.4973
▁sake	-11.4973
▁plantation	-11.4973
▁geo	-11.4975
▁heated	-11.4976
db	-11.4979
▁abbot	-11.4983
▁cart	-11.499
enice	-11.4991
▁woods	-11.4998
▁impress	-11.4998
▁mozart	-11.5001
▁fricative	-11.5001
▁stuff	-11.5003
▁nbc	-11.501
▁integrate	-11.5014
ison	-11.5018
▁ut	-11.5032
terim	-11.5038
▁metallic	-11.5038
▁aol	-11.5047
cious	-11.5047
▁bent	-11.5049
▁sid	-11.505
▁suffrage	-11.505
▁bigge	-11.505
▁cobain	-11.505
▁terrestrial	-11.5051
▁bogart	-11.5051
▁slogan	-11.5051
▁guyana	-11.5051
▁trojan	-11.5051
▁sonata	-11.5053
▁bene	-11.5054
▁violate	-11.5055
▁alike	-11.5056
▁ju	-11.5066
▁platin	-11.5068
▁redirect	-11.5072
▁ptolem	-11.5074
▁postal	-11.5077
bo	-11.5082
▁dale	-11.5084
▁faroes	-11.5086
▁caves	-11.5092
▁tre	-11.5096
▁carey	-11.5097
▁locke	-11.5097
▁cc	-11.5098
▁bride	-11.5098
▁exotic	-11.51
▁dairy	-11.5101
▁injection	-11.5102
▁zu	-11.5103
thology	-11.512
▁ego	-11.5123
▁relie	-11.5124
gi	-11.5129
▁swimm	-11.5134
▁birm	-11.5137
▁standardiz	-11.5138
▁baghdad	-11.5141
▁pol	-11.5142
▁milwaukee	-11.515
▁hobbes	-11.515
hitting	-11.515
▁persistent	-11.515
▁rouge	-11.515
▁cauch	-11.5151
▁neumann	-11.5151
▁metabolism	-11.5151
▁zinc	-11.5152
▁princes	-11.5153
▁spare	-11.5153
▁gb	-11.5157
▁mystical	-11.5161
▁induce	-11.5163
▁pale	-11.5165
▁fda	-11.5166
dom	-11.5168
▁cheaper	-11.5171
ano	-11.5178
▁magnet	-11.5179
▁sporting	-11.518
▁menu	-11.5181
▁chester	-11.5189
▁southeaster	-11.5192
▁chaucer	-11.5199
▁afro	-11.52
▁kangaroo	-11.52
▁phantom	-11.52
▁sullivan	-11.52
▁isomorphism	-11.52
▁sediment	-11.52
▁newfoundland	-11.5201
▁imagination	-11.5201
▁flowing	-11.5201
▁ferrari	-11.5202
▁maneuver	-11.5207
▁krak	-11.5208
gow	-11.521
▁breaks	-11.5216
▁pok	-11.5216
▁pine	-11.522
▁classics	-11.5223
▁adhere	-11.5225
▁benedict	-11.5225
▁perl	-11.5229
▁sends	-11.523
▁mobil	-11.523
▁hearts	-11.5231
▁sue	-11.5231
▁seize	-11.5232
▁unli	-11.5233
▁leonardo	-11.5233
▁scratch	-11.5234
▁cartoons	-11.5236
▁yang	-11.5238
▁slovakia	-11.5242
▁za	-11.5243
▁resembl	-11.5245
▁lm	-11.5246
▁tremendous	-11.5251
▁shannon	-11.5251
▁arcade	-11.5251
▁longitude	-11.5251
▁overlook	-11.5251
▁cultivation	-11.5252
▁crescent	-11.5253
▁xml	-11.5254
▁altar	-11.5255
▁prefecture	-11.5258
▁rider	-11.5277
gang	-11.528
▁customar	-11.528
▁protestants	-11.5285
▁tablet	-11.5289
▁coerci	-11.529
▁slide	-11.5292
▁oct	-11.5293
▁gin	-11.5293
▁characterize	-11.5294
▁instruct	-11.5297
▁hausdorff	-11.5302
▁rainbow	-11.5302
▁prelude	-11.5302
▁curious	-11.5302
▁masturbation	-11.5302
▁footnote	-11.5303
▁literac	-11.531
▁donor	-11.5312
▁pointing	-11.5321
▁knows	-11.5325
▁xii	-11.533
▁bruno	-11.5331
▁rk	-11.5331
▁bahrain	-11.5338
▁ruby	-11.534
▁nl	-11.5341
▁northwester	-11.5344
▁anticipat	-11.5344
▁angr	-11.5348
▁pig	-11.535
▁enthusiast	-11.5351
▁clouds	-11.5351
▁hispanic	-11.5353
▁rachel	-11.5353
▁rotor	-11.5353
▁spencer	-11.5353
▁spectacular	-11.5354
▁fool	-11.5354
▁fried	-11.5355
▁resistan	-11.5356
▁oversee	-11.5357
▁burton	-11.5357
▁ilia	-11.536
▁commandment	-11.5361
▁invisible	-11.5364
▁dame	-11.5372
▁ivory	-11.5374
▁deutsche	-11.5382
▁owe	-11.5386
▁trumpet	-11.5389
▁raf	-11.5392
▁priv	-11.5394
▁kel	-11.5395
▁casual	-11.5399
▁reformer	-11.5399
▁nehru	-11.5404
▁botswana	-11.5404
▁qualification	-11.5404
▁cleese	-11.5405
▁originating	-11.5405
▁eruption	-11.5405
▁tenure	-11.5406
▁hail	-11.5409
▁catalogue	-11.5414
▁swor	-11.5416
▁feeding	-11.5423
▁hint	-11.5428
▁dun	-11.5433
went	-11.5439
▁bundle	-11.5441
▁quickl	-11.5445
▁rabbit	-11.5446
▁reply	-11.5447
▁affiliation	-11.5455
▁nebraska	-11.5455
▁fencing	-11.5455
▁gasoline	-11.5455
▁barbado	-11.5456
danube	-11.5456
▁humanitarian	-11.5456
▁locate	-11.5457
▁offence	-11.5458
▁wto	-11.5462
▁swords	-11.5464
▁comfort	-11.5467
▁catalog	-11.5468
▁tap	-11.5469
▁dial	-11.5476
▁coloured	-11.5484
▁sins	-11.5484
▁troll	-11.5491
▁fond	-11.5494
▁polymer	-11.5495
▁apparatus	-11.5507
▁irrational	-11.5507
▁prolific	-11.5507
▁sulfur	-11.5507
▁asylum	-11.5507
▁multiply	-11.5507
▁harmful	-11.5508
▁furni	-11.5508
▁initiate	-11.5508
▁manipulation	-11.5509
▁blank	-11.5509
▁substitution	-11.5509
▁methane	-11.551
▁quartet	-11.5512
▁karate	-11.5512
▁dump	-11.5513
▁shops	-11.5514
▁hadrian	-11.5514
▁chuck	-11.5516
▁gai	-11.5519
▁kabbala	-11.552
ging	-11.552
ho	-11.5523
▁builder	-11.5536
com	-11.554
▁arbor	-11.5541
▁hera	-11.5548
▁photographer	-11.555
ward	-11.555
▁yo	-11.5557
▁annexation	-11.5559
▁reservoir	-11.5559
▁treason	-11.5559
▁kilogram	-11.5559
▁binomial	-11.5559
▁destructive	-11.5559
▁mughal	-11.5559
▁taliban	-11.556
▁excavation	-11.556
▁mazda	-11.556
▁prolong	-11.556
▁ahmed	-11.556
▁dakota	-11.5561
▁trivial	-11.5563
▁burroughs	-11.5565
▁abstraction	-11.5566
▁void	-11.5573
▁stain	-11.5578
▁dx	-11.5582
▁discontinu	-11.5584
▁codex	-11.5585
ries	-11.5591
▁financ	-11.5592
▁tigers	-11.5592
▁taxi	-11.5593
har	-11.5594
▁tram	-11.5599
▁wheels	-11.56
▁juice	-11.56
rangle	-11.5601
ona	-11.5602
▁comparabl	-11.5606
▁prepar	-11.5608
ites	-11.5609
▁inference	-11.5609
▁albatross	-11.5612
▁cicero	-11.5612
▁epoch	-11.5612
▁beneficial	-11.5612
▁hezbolla	-11.5612
▁merlin	-11.5613
▁lisbon	-11.5614
▁piston	-11.5614
residential	-11.5614
▁panther	-11.5615
▁utilize	-11.5616
▁righteous	-11.5616
▁fernando	-11.5616
▁ears	-11.5618
▁tubes	-11.562
▁sad	-11.5623
▁progression	-11.5623
▁hol	-11.5623
▁kell	-11.5625
▁breach	-11.5629
▁kryptoni	-11.563
▁forge	-11.5633
▁jose	-11.5633
▁entrepreneur	-11.5638
▁diacritic	-11.5648
▁nicola	-11.5649
▁burke	-11.5652
▁belize	-11.5662
▁ahmad	-11.5663
extraterrestrial	-11.5664
▁braille	-11.5664
▁amnest	-11.5664
▁etruscan	-11.5664
▁offspring	-11.5664
▁mafia	-11.5665
▁adjustment	-11.5666
▁psalm	-11.5666
▁infinitive	-11.5666
▁decoration	-11.5666
▁pedro	-11.5667
▁geologist	-11.5668
▁impulse	-11.567
▁additive	-11.5671
ran	-11.5677
▁confederac	-11.5677
▁synthesizer	-11.5682
▁tai	-11.5686
▁steadi	-11.5689
mited	-11.5689
▁outdoor	-11.5692
▁validit	-11.5694
▁complementar	-11.5696
▁nicaragua	-11.5707
▁tcp	-11.5715
▁helsinki	-11.5717
▁bristol	-11.5717
▁ml	-11.5718
▁ceramic	-11.5718
▁feather	-11.5718
▁negro	-11.5718
▁presbyterian	-11.5718
▁priesthood	-11.5718
▁synonymous	-11.5719
▁frozen	-11.5719
▁planck	-11.5719
▁generalization	-11.572
▁dann	-11.5721
▁chambers	-11.5726
▁bolt	-11.5726
▁prc	-11.5729
▁designate	-11.5729
▁clothes	-11.5733
▁frog	-11.5734
▁spann	-11.5737
▁sauce	-11.5738
▁shortage	-11.5739
▁tanak	-11.5739
▁blessed	-11.574
▁accommodate	-11.5746
les	-11.5747
▁las	-11.5749
illa	-11.5749
▁heroic	-11.5749
▁falkland	-11.575
▁villa	-11.575
▁editorial	-11.5756
▁caste	-11.576
▁gifts	-11.5764
▁farms	-11.5765
▁homomorphism	-11.577
▁proximit	-11.577
▁tertiar	-11.5771
▁imdb	-11.5771
▁compensation	-11.5771
▁northeastern	-11.5771
▁transparent	-11.5771
▁hercule	-11.5771
▁archaeologist	-11.5775
clu	-11.5779
▁pdp	-11.5781
▁tis	-11.5782
▁wal	-11.5782
▁wrestler	-11.5787
▁moralit	-11.5789
▁shoes	-11.5791
▁motors	-11.5793
▁delphi	-11.5795
▁invader	-11.5797
▁differentiate	-11.5798
▁surpass	-11.5799
▁pregnan	-11.5804
▁irving	-11.5804
▁grove	-11.5807
▁mesopotamia	-11.5813
folk	-11.5816
▁trapp	-11.5817
▁shapes	-11.5819
▁djibouti	-11.5821
▁abolition	-11.5822
▁intake	-11.5823
▁descriptive	-11.5824
▁satire	-11.5824
▁spherical	-11.5824
▁proud	-11.5824
▁chapman	-11.5825
▁carlo	-11.5825
▁announcement	-11.5826
▁cathode	-11.5826
▁sympathetic	-11.5827
▁granite	-11.5828
▁trophy	-11.5829
▁inhibitor	-11.5829
▁leeds	-11.583
▁bonus	-11.583
▁pbs	-11.5831
▁migrat	-11.5835
▁divinit	-11.5835
▁vectors	-11.5836
▁assess	-11.5837
▁raider	-11.5837
▁resid	-11.5848
▁pac	-11.5849
▁mono	-11.585
▁slaughter	-11.5856
▁cannibal	-11.586
du	-11.587
▁breathing	-11.5872
▁intimate	-11.5878
▁surplus	-11.5878
▁sociology	-11.5878
▁pastor	-11.5878
▁graffiti	-11.5879
▁vague	-11.588
▁classify	-11.5881
▁panama	-11.5881
▁applicab	-11.5882
▁substrate	-11.5883
▁abdul	-11.5884
media	-11.5886
▁bantu	-11.5887
▁stranger	-11.5888
▁satisfy	-11.5891
▁offset	-11.5895
elhi	-11.5895
▁castro	-11.5895
tz	-11.5896
▁negotiate	-11.5899
ow	-11.5905
▁hellenist	-11.5906
▁hale	-11.5909
ean	-11.5912
▁simp	-11.5913
▁blessing	-11.5913
▁cubs	-11.5913
ag	-11.5921
▁chant	-11.5921
▁elector	-11.5923
▁vest	-11.5925
▁pears	-11.5926
▁bounded	-11.5927
▁boxe	-11.5929
▁honda	-11.5932
▁inequalit	-11.5932
▁nomenclature	-11.5932
▁unconscious	-11.5932
▁confusing	-11.5932
▁inertial	-11.5934
▁goat	-11.5936
▁wip	-11.5939
▁vita	-11.5943
▁rightarrow	-11.5943
▁popper	-11.5944
▁braves	-11.5945
▁colin	-11.5945
▁wellington	-11.5947
▁seldo	-11.5955
▁inca	-11.5956
▁greg	-11.596
▁usenet	-11.5961
lan	-11.5965
▁associates	-11.5966
▁mj	-11.5973
▁inhibit	-11.598
▁plug	-11.5983
▁harpsichord	-11.5984
ised	-11.5985
▁sibling	-11.5986
▁kerala	-11.5986
▁dipole	-11.5986
▁thames	-11.5986
▁turbine	-11.5986
▁kitchen	-11.5987
▁decease	-11.5987
▁craig	-11.5987
▁autism	-11.5988
▁dee	-11.5988
▁honest	-11.599
▁klein	-11.599
▁alert	-11.599
▁ensur	-11.5993
▁lucy	-11.5995
core	-11.5996
▁ought	-11.5997
wave	-11.6
▁retire	-11.6
▁kane	-11.6
▁morpholog	-11.6004
▁berry	-11.6004
era	-11.6005
▁consul	-11.6007
▁leb	-11.6013
▁mph	-11.6016
▁trap	-11.6022
▁consume	-11.6023
▁eighteen	-11.6024
▁analyse	-11.6026
▁desk	-11.6028
▁zen	-11.6029
▁lin	-11.6032
▁cancel	-11.6034
▁lego	-11.6035
▁demo	-11.6038
utical	-11.6039
▁ceas	-11.604
▁antenna	-11.6041
▁bertrand	-11.6041
▁playstation	-11.6042
▁warrant	-11.6042
▁spectral	-11.6042
▁lighthouse	-11.6046
▁sigma	-11.6049
▁foreigner	-11.605
▁lime	-11.6051
▁tun	-11.6054
guel	-11.6056
▁happines	-11.6064
ize	-11.6068
▁swift	-11.6068
▁glenn	-11.6068
▁lan	-11.607
▁karma	-11.6078
▁tours	-11.6079
▁queens	-11.6083
▁lds	-11.6083
▁stein	-11.6086
▁embrac	-11.6092
▁frigate	-11.6096
▁caffein	-11.6096
▁boolean	-11.6096
▁maize	-11.6096
▁ci	-11.6097
▁aggression	-11.6097
▁myanma	-11.6098
▁mishna	-11.61
▁mol	-11.6102
▁handful	-11.6102
▁hostage	-11.6103
▁aztec	-11.6112
▁mob	-11.6112
▁ul	-11.6116
▁jenn	-11.6119
▁sci	-11.6119
▁rico	-11.6125
▁amos	-11.6127
▁symmetric	-11.6127
▁rad	-11.6129
▁advised	-11.6135
fty	-11.6143
▁coincide	-11.6148
▁copyleft	-11.6151
▁susceptib	-11.6151
▁rumour	-11.6151
▁beloved	-11.6151
▁advertisement	-11.6151
▁fellowship	-11.6152
▁distortion	-11.6152
▁fermentation	-11.6153
▁solvent	-11.6153
▁martian	-11.6154
▁limb	-11.6156
▁rosa	-11.6159
▁winston	-11.6159
▁bacterial	-11.6162
▁athena	-11.6165
▁simplicit	-11.6169
▁fungi	-11.6169
unable	-11.6173
▁aloe	-11.6177
▁babe	-11.6182
▁baptiz	-11.6192
ated	-11.6192
▁alban	-11.6194
▁haven	-11.6198
▁doug	-11.6203
▁synod	-11.6206
▁stomach	-11.6206
▁earnhardt	-11.6207
▁baldwin	-11.6207
▁feat	-11.6207
▁rape	-11.6207
▁whales	-11.6208
▁replication	-11.6208
bach	-11.6209
▁libert	-11.6211
▁artwork	-11.6213
▁nuclei	-11.6214
▁warhol	-11.6218
▁albanians	-11.6221
▁duo	-11.6226
▁erie	-11.6229
▁sony	-11.623
▁philosophie	-11.6236
▁nurse	-11.6239
je	-11.624
▁denounc	-11.6244
▁alexi	-11.625
▁manitoba	-11.6251
▁dealer	-11.6256
af	-11.6257
▁tiles	-11.6257
▁ap	-11.6258
▁shells	-11.6258
▁zimbabwe	-11.6259
aphrodite	-11.6262
▁disband	-11.6263
▁wonderful	-11.6263
▁birthplace	-11.6263
▁incentive	-11.6263
▁queensland	-11.6265
▁ri	-11.6266
▁affinit	-11.6266
▁holmes	-11.6267
▁druid	-11.6271
▁successors	-11.6273
ified	-11.6276
▁fc	-11.6277
iness	-11.6278
▁ballet	-11.6278
ino	-11.6279
▁lois	-11.628
▁institut	-11.6286
▁evaluate	-11.629
▁laura	-11.6292
▁exceeding	-11.6298
▁singh	-11.6299
uez	-11.6302
▁wrestl	-11.6307
▁mart	-11.6313
▁maze	-11.6314
▁yugoslav	-11.6316
▁daredevil	-11.6319
▁surveill	-11.6319
▁grenada	-11.6319
▁ambition	-11.6319
▁sterling	-11.6319
▁fraser	-11.6319
▁ferment	-11.6319
▁civic	-11.6319
▁bilateral	-11.632
▁resemblance	-11.632
▁deployment	-11.632
▁genera	-11.6322
▁hanging	-11.6322
▁orthograph	-11.6322
▁extraction	-11.6324
▁antoine	-11.6324
▁gains	-11.6326
▁riel	-11.6326
▁downward	-11.6326
va	-11.6327
▁fortran	-11.6329
▁fatt	-11.6332
▁incest	-11.6336
▁bavarian	-11.634
▁popul	-11.6344
▁butt	-11.6344
▁verde	-11.6348
▁yourself	-11.6348
▁dar	-11.6351
▁analyz	-11.6351
▁roma	-11.6361
▁biafra	-11.6363
▁hymn	-11.637
▁gent	-11.6372
▁beowulf	-11.6375
▁concession	-11.6375
▁disastrous	-11.6375
▁equinox	-11.6375
▁liechtenstein	-11.6375
▁pharmaceutical	-11.6375
▁jeffrey	-11.6375
▁elijah	-11.6375
▁exposition	-11.6375
▁touchdown	-11.6375
took	-11.6377
▁vibration	-11.6377
▁crashe	-11.6378
▁mercy	-11.6379
▁email	-11.638
▁connector	-11.638
▁sailing	-11.6385
▁vein	-11.6388
▁boer	-11.6388
▁perry	-11.6391
▁fao	-11.6393
▁rhetoric	-11.6401
▁cliff	-11.6405
▁promising	-11.6416
▁wit	-11.642
and	-11.642
▁yama	-11.6424
▁dots	-11.6427
▁diffracti	-11.6427
▁enclos	-11.6428
▁gda	-11.6428
▁fires	-11.6428
▁registr	-11.6429
▁moroccan	-11.6432
▁ecumenical	-11.6432
▁prejudice	-11.6432
▁hypothetical	-11.6432
▁mutant	-11.6432
▁savage	-11.6432
▁sikh	-11.6433
▁burnt	-11.6433
▁billboard	-11.6435
▁gauss	-11.6438
▁emma	-11.6438
▁truman	-11.6439
▁associative	-11.6443
▁rapper	-11.6447
▁dover	-11.6447
▁doroth	-11.6452
▁kor	-11.6456
tolen	-11.6457
▁bonding	-11.6463
▁unrest	-11.6465
▁yoga	-11.6465
▁laden	-11.6466
▁carbonate	-11.647
▁straus	-11.647
tion	-11.6471
▁tier	-11.6473
▁napl	-11.6476
▁elve	-11.6477
▁dances	-11.6482
▁developmental	-11.6486
▁kaspar	-11.6489
▁wagner	-11.6489
▁garbage	-11.6489
▁likelihood	-11.6489
▁nevada	-11.649
▁api	-11.649
▁teutonic	-11.649
▁beetle	-11.649
▁decid	-11.649
▁vow	-11.6491
▁authorship	-11.6495
mont	-11.6496
▁wherein	-11.6498
▁complian	-11.6501
▁ether	-11.6503
▁crest	-11.651
▁bart	-11.6513
▁sep	-11.6516
▁speculat	-11.6523
fried	-11.6524
▁lombard	-11.6526
▁rum	-11.6528
▁lisa	-11.6528
▁barr	-11.6535
▁maybe	-11.6536
▁adrian	-11.6539
▁lynn	-11.6542
▁proving	-11.6544
▁excerpt	-11.6546
▁unnecessar	-11.6546
▁ambrose	-11.6547
▁javascript	-11.6547
▁rigorous	-11.6547
▁hus	-11.6549
▁surgeon	-11.655
▁sandy	-11.6554
book	-11.6554
▁suburban	-11.6556
▁denis	-11.6557
▁freud	-11.6561
▁shirt	-11.6572
fifa	-11.6576
▁entertain	-11.6581
▁latex	-11.6581
▁libyan	-11.6583
▁labell	-11.6586
▁mis	-11.6588
▁manx	-11.6588
▁cite	-11.659
▁cloning	-11.6592
▁unchang	-11.6601
▁sensitivit	-11.6604
▁hydrocarbon	-11.6604
▁maldive	-11.6604
▁paramount	-11.6604
▁indefinite	-11.6604
▁hatred	-11.6604
▁complication	-11.6605
▁karaok	-11.6606
▁artemis	-11.6608
▁dominica	-11.6609
▁advancement	-11.6611
▁joel	-11.6612
▁nickel	-11.6614
rasmus	-11.6624
▁atta	-11.6644
▁mcg	-11.6645
▁brake	-11.6647
▁bust	-11.6649
▁guru	-11.6655
▁stimulat	-11.666
▁clapt	-11.6661
▁erroneous	-11.6662
▁skeleton	-11.6662
▁yeltsin	-11.6662
▁bronx	-11.6663
▁robust	-11.6663
▁deforest	-11.6663
▁hayek	-11.6663
▁luxur	-11.6663
▁escort	-11.6663
▁fritz	-11.6664
▁keen	-11.6664
▁tomorrow	-11.6664
▁richmond	-11.6664
▁suppression	-11.6667
▁paths	-11.6667
▁indus	-11.6668
eaten	-11.6669
▁bike	-11.6669
▁nat	-11.667
▁gov	-11.667
▁alkane	-11.6673
▁coke	-11.6676
▁fer	-11.6678
▁betting	-11.6678
source	-11.6681
▁gnosticism	-11.6683
▁mysterie	-11.6684
▁simpson	-11.6684
▁brave	-11.6685
▁chrono	-11.669
▁fland	-11.6701
▁emblem	-11.6711
▁memorabl	-11.6716
▁mur	-11.6716
▁shrine	-11.6718
▁veto	-11.6719
▁porter	-11.672
▁implant	-11.6721
▁ajax	-11.6721
▁gardner	-11.6721
▁chloride	-11.6727
▁kr	-11.6732
▁rows	-11.6735
▁euclid	-11.6738
▁peculiar	-11.6739
▁threatening	-11.6741
▁multimedi	-11.6745
▁feb	-11.6748
▁kni	-11.6752
▁baba	-11.6753
▁whit	-11.6756
▁cpus	-11.6778
▁gunpowder	-11.678
▁aerospace	-11.678
▁cryonic	-11.678
▁timoth	-11.678
▁chaplin	-11.678
▁basel	-11.6781
▁gwh	-11.6783
▁souls	-11.6785
ff	-11.6785
▁consolidat	-11.6786
▁domino	-11.6787
▁delete	-11.679
▁compute	-11.6792
▁az	-11.6795
▁mall	-11.6803
▁skater	-11.6806
▁beard	-11.6811
▁turner	-11.682
▁starv	-11.6822
▁pork	-11.6822
▁islander	-11.6823
▁pun	-11.6824
▁submit	-11.6825
▁langle	-11.6825
▁reinforc	-11.6828
▁qui	-11.6832
▁hamster	-11.6833
▁sean	-11.6837
▁cayman	-11.6838
▁biodivers	-11.6839
▁carbohydrate	-11.6839
▁certificate	-11.6839
▁auckland	-11.6839
▁garner	-11.6839
▁debian	-11.6839
▁felix	-11.6839
▁abundance	-11.684
avis	-11.684
▁ryan	-11.6841
▁confrontation	-11.6841
▁ballistic	-11.6841
▁cognate	-11.6842
▁victorie	-11.6843
▁desperate	-11.6844
▁terrible	-11.6847
▁bypass	-11.6848
▁gc	-11.6848
▁hire	-11.685
▁potass	-11.6852
▁balkans	-11.6853
▁deaf	-11.6854
▁sec	-11.6856
▁bodi	-11.6862
▁schr	-11.6863
▁staple	-11.6867
▁stern	-11.6869
▁summon	-11.6869
▁worshipp	-11.6873
▁gut	-11.6879
▁ranger	-11.6881
▁zion	-11.6883
▁scroll	-11.6889
▁atp	-11.6897
▁shepherd	-11.6898
▁misconception	-11.6898
▁afternoon	-11.6898
▁intuitive	-11.6899
▁lent	-11.6899
▁blair	-11.69
ibid	-11.69
▁thou	-11.6902
▁serpent	-11.6904
▁rhythmic	-11.6905
▁opt	-11.6909
▁kids	-11.6912
▁donation	-11.692
like	-11.6922
▁pinoch	-11.6925
▁ber	-11.6925
▁winters	-11.6928
▁pike	-11.6928
▁tanker	-11.693
▁celebrit	-11.6933
po	-11.6944
▁mumm	-11.6944
▁lars	-11.695
▁palmer	-11.6958
▁mahjong	-11.6958
▁illegitimate	-11.6958
▁drastic	-11.6958
▁riemann	-11.6958
▁gesture	-11.6959
▁reconciliation	-11.6959
▁chopin	-11.6959
▁choir	-11.6959
▁workshop	-11.696
▁pornograph	-11.6961
▁teenager	-11.6961
▁grande	-11.6961
▁attachment	-11.6962
▁arid	-11.6962
▁parson	-11.6965
▁hardco	-11.6965
▁adverse	-11.6965
▁preach	-11.6967
▁schism	-11.6973
▁vandal	-11.6976
▁fre	-11.6983
eau	-11.6985
▁yu	-11.6995
▁cort	-11.6998
▁potatoe	-11.6999
▁tide	-11.7003
▁doc	-11.7004
ozone	-11.7004
▁irrigat	-11.7006
▁upset	-11.7009
▁drunk	-11.7014
▁drinks	-11.7016
▁enroll	-11.7018
▁caligula	-11.7019
▁expulsion	-11.7019
▁zeppelin	-11.7019
▁catalonia	-11.7019
▁griffith	-11.7019
▁kirby	-11.7019
▁hypoglycemi	-11.7019
▁phoenician	-11.702
▁deport	-11.702
▁sparse	-11.7021
▁deconstruction	-11.7024
▁chrysler	-11.7026
▁borges	-11.7028
▁heap	-11.7033
▁compose	-11.7036
▁justin	-11.7038
▁vo	-11.7039
script	-11.7043
▁aragon	-11.7044
▁clerk	-11.7045
▁placement	-11.7057
▁levi	-11.7059
▁recreation	-11.7064
▁mytho	-11.707
▁prayers	-11.7076
▁comp	-11.7077
▁percussion	-11.7078
▁instabilit	-11.7078
▁inadequate	-11.7079
▁quark	-11.7079
▁nuremb	-11.7079
▁distribute	-11.708
▁wilderness	-11.708
▁corinthian	-11.7081
▁resum	-11.7081
▁lynx	-11.7081
▁sunset	-11.7081
▁problematic	-11.7082
▁francesco	-11.7083
▁mythical	-11.7083
▁kal	-11.709
▁loving	-11.7095
▁genetical	-11.7104
addam	-11.7108
▁boris	-11.7108
▁mythologic	-11.7108
▁colonist	-11.7109
▁propulsi	-11.7111
▁commemorate	-11.7115
▁lip	-11.7122
▁ein	-11.7123
▁nashvill	-11.7127
master	-11.7133
▁jun	-11.7133
▁magnesi	-11.7134
▁cyril	-11.7136
▁ou	-11.7137
▁hanover	-11.714
▁alternating	-11.714
▁concurrent	-11.714
▁vitamin	-11.714
▁vigorous	-11.714
▁cartesian	-11.714
▁electrode	-11.7141
▁cyberpunk	-11.7142
▁accomplishment	-11.7142
▁guess	-11.7146
▁dental	-11.7146
etti	-11.7147
hart	-11.7148
▁posit	-11.715
ure	-11.7153
▁steer	-11.7154
▁phillips	-11.7161
▁bench	-11.7164
nacci	-11.7165
▁pose	-11.7165
▁concorde	-11.7168
▁freeman	-11.7171
▁suf	-11.7172
▁arriv	-11.7172
▁beau	-11.718
▁cantones	-11.7184
▁gis	-11.7191
▁eucharist	-11.7193
▁biographer	-11.7194
▁fauna	-11.7195
▁spa	-11.7196
▁bak	-11.72
▁ambiguit	-11.7201
▁amplitude	-11.7201
▁apocalypse	-11.7201
▁defunct	-11.7201
▁epidemic	-11.7201
▁embark	-11.7201
▁lattice	-11.7202
▁cyrillic	-11.7202
▁fortification	-11.7203
▁hierarchical	-11.7203
▁insufficient	-11.7204
▁mare	-11.7204
▁hadith	-11.7205
▁intelsat	-11.7214
▁nail	-11.7218
▁ivoir	-11.7223
▁viewer	-11.7224
▁disabl	-11.7228
▁livingston	-11.7229
compatible	-11.7233
▁sang	-11.7234
▁guern	-11.7234
▁premiere	-11.7234
▁draws	-11.7239
▁arter	-11.7244
▁neolith	-11.7244
bu	-11.7245
▁icc	-11.7249
▁kay	-11.7249
▁stereotype	-11.725
▁ob	-11.7252
▁rt	-11.7256
▁imperfect	-11.7261
▁erupt	-11.7261
▁viewing	-11.7262
▁suspicion	-11.7263
▁routledge	-11.7263
▁barnabas	-11.7263
▁ordinance	-11.7263
▁arbitration	-11.7263
▁enron	-11.7264
▁ambient	-11.7265
▁postulate	-11.7265
▁authoritative	-11.7266
▁doctorate	-11.7266
▁shotgun	-11.7266
▁bulletin	-11.7266
▁dropping	-11.7267
▁hipparch	-11.727
▁derby	-11.7271
▁misleading	-11.7273
▁gall	-11.728
▁unto	-11.7284
▁sen	-11.7286
▁universidad	-11.7287
ado	-11.7291
▁decorat	-11.7291
▁sinai	-11.7294
tel	-11.7295
▁museums	-11.7302
▁generaliz	-11.7302
▁bur	-11.7305
▁tex	-11.7308
ero	-11.7309
▁stripp	-11.731
▁elliptic	-11.7314
▁bark	-11.7314
▁materialism	-11.732
▁devastating	-11.732
▁hesse	-11.7321
▁occult	-11.7321
▁pur	-11.7323
▁pilgrim	-11.7325
iel	-11.7325
▁quasi	-11.7325
▁displacement	-11.7326
ani	-11.7326
▁reproductive	-11.7326
▁elliot	-11.7326
▁chromatic	-11.7327
▁crust	-11.7327
▁offshore	-11.7327
▁outright	-11.7328
▁vapor	-11.7328
▁scarce	-11.7328
▁rookie	-11.7329
▁liturg	-11.7329
▁nordic	-11.7329
▁whig	-11.7331
▁idle	-11.7331
▁phosphate	-11.7333
if	-11.7334
▁maj	-11.7334
▁bios	-11.7335
▁olive	-11.7338
▁glider	-11.7338
▁peters	-11.734
▁cgi	-11.7343
▁jar	-11.7347
▁presumed	-11.7351
▁noticeabl	-11.7353
▁flies	-11.7356
▁substitut	-11.7357
▁manipulate	-11.736
▁cox	-11.7361
▁scan	-11.7369
▁interchangeabl	-11.7373
▁explode	-11.7374
min	-11.7377
▁deng	-11.7378
ocene	-11.7379
ari	-11.738
▁certifi	-11.7381
▁licenses	-11.7383
▁ezr	-11.7384
heim	-11.7384
▁camel	-11.7385
ase	-11.7387
▁bonaparte	-11.7388
▁perpendicular	-11.7388
▁ribbentrop	-11.7388
▁turtle	-11.7388
▁memphi	-11.7388
▁afrikaans	-11.7388
▁correlation	-11.7388
▁enlist	-11.7389
▁lamb	-11.7389
▁maiden	-11.7391
▁amp	-11.7399
▁xiii	-11.7399
▁packag	-11.7399
▁cider	-11.7403
▁lesoth	-11.7412
▁laurent	-11.7417
▁fries	-11.7417
▁captiv	-11.7418
▁af	-11.7419
▁della	-11.7421
▁todd	-11.7426
▁ladie	-11.7428
▁sage	-11.7447
▁vassal	-11.745
▁augment	-11.7451
▁rousseau	-11.7451
▁dungeon	-11.7451
▁immunit	-11.7451
▁pharaoh	-11.7451
▁boulder	-11.7451
▁mozilla	-11.7451
▁ulrich	-11.7451
▁buckingham	-11.7451
▁masterpiece	-11.7451
▁deacon	-11.7451
▁visa	-11.7451
▁cumber	-11.7451
▁blake	-11.7454
▁biographical	-11.7454
▁rho	-11.7455
▁prescrib	-11.7455
▁encyclop	-11.7456
▁aggregate	-11.7458
▁cyber	-11.7467
▁purge	-11.7471
croft	-11.7476
▁sympath	-11.7478
▁gt	-11.7479
▁mcgill	-11.748
tro	-11.7481
▁hind	-11.7487
▁individualist	-11.7488
▁guilt	-11.7491
▁flock	-11.7492
▁inject	-11.7493
▁charl	-11.7496
▁poisoning	-11.7496
▁alto	-11.7497
▁ida	-11.7507
▁akin	-11.751
▁rex	-11.7511
▁heres	-11.7513
nard	-11.7514
▁labyrinth	-11.7514
▁resonance	-11.7514
▁spectroscopy	-11.7514
▁druze	-11.7514
▁gradient	-11.7514
▁pretty	-11.7514
▁grammy	-11.7514
▁stockholm	-11.7514
▁psychiatric	-11.7515
▁preface	-11.7515
▁sebastian	-11.7516
▁precedent	-11.7516
ting	-11.7518
▁dislike	-11.752
▁humanism	-11.7523
▁citation	-11.7523
▁humid	-11.7527
base	-11.7527
▁donat	-11.7531
▁phillip	-11.7532
▁excel	-11.7534
▁jule	-11.7536
▁entertainer	-11.7539
▁ionic	-11.754
▁sav	-11.754
moto	-11.7541
▁apache	-11.7542
▁casting	-11.7553
▁pakistani	-11.7556
▁charm	-11.756
▁symbolism	-11.7563
▁antibod	-11.7567
atic	-11.7567
ira	-11.7568
▁ideals	-11.7572
box	-11.7573
▁intercept	-11.7575
▁ell	-11.7577
▁breakthrough	-11.7578
▁caucasus	-11.7578
▁navigator	-11.7578
▁screenplay	-11.7578
▁herodot	-11.7578
▁diabet	-11.7578
▁homage	-11.7578
▁speculative	-11.7579
▁convex	-11.7579
▁licence	-11.7579
▁glacial	-11.758
▁interchange	-11.7581
▁amaranth	-11.7582
▁midway	-11.7583
▁roland	-11.7586
ken	-11.7586
▁weaker	-11.7587
▁aurang	-11.7587
bar	-11.759
▁bros	-11.7595
▁alphabetical	-11.7599
▁struggl	-11.7599
▁fra	-11.7605
▁mills	-11.7608
▁warship	-11.7611
ida	-11.7612
crete	-11.7612
▁buttons	-11.7614
▁normand	-11.7617
▁dwelling	-11.7627
▁mauritania	-11.7631
▁headline	-11.7639
▁transcript	-11.764
▁shake	-11.764
▁illicit	-11.7642
▁turbulen	-11.7642
espionage	-11.7642
▁functor	-11.7642
▁entail	-11.7642
▁tackle	-11.7642
▁boycott	-11.7642
▁lizard	-11.7642
▁clue	-11.7642
▁bigfoot	-11.7642
▁optimal	-11.7642
▁reynold	-11.7643
▁gameplay	-11.7643
▁taxonom	-11.7643
▁benzene	-11.7644
▁anabaptist	-11.7644
▁dinner	-11.7645
▁josef	-11.7645
▁bet	-11.7647
▁mrna	-11.7648
▁ants	-11.765
▁underworld	-11.7652
▁christin	-11.7655
▁denial	-11.7657
▁emacs	-11.7657
▁jaw	-11.7659
▁deficienc	-11.766
tl	-11.7663
▁purit	-11.7672
zeb	-11.7673
▁cope	-11.7674
▁indianapoli	-11.7675
▁recount	-11.7675
▁dash	-11.7676
▁homeless	-11.7676
▁nash	-11.7677
▁dispers	-11.7677
▁burkina	-11.7678
▁naturalist	-11.7682
▁sagan	-11.7684
▁calm	-11.7686
tact	-11.7689
▁biochemistr	-11.769
▁deteriorat	-11.7696
▁je	-11.7698
▁fails	-11.7699
iable	-11.77
▁exempt	-11.7705
rable	-11.7705
ap	-11.7705
▁aboriginal	-11.7706
▁anoint	-11.7706
▁shanghai	-11.7706
▁spray	-11.7707
▁appreciation	-11.7707
▁nicene	-11.7708
▁webster	-11.7708
▁receivers	-11.7708
▁cruel	-11.7709
▁allocation	-11.7709
▁lope	-11.7712
▁quarters	-11.7713
▁endure	-11.7717
▁slam	-11.772
▁cuts	-11.7721
▁jets	-11.7722
▁flooding	-11.7722
▁que	-11.773
▁inaugurat	-11.7731
▁evaluat	-11.7736
▁jung	-11.7741
▁covert	-11.7743
wan	-11.7746
▁communicat	-11.7746
▁glossar	-11.7749
▁mecha	-11.775
▁filmograph	-11.7752
aurus	-11.7753
▁ansi	-11.7756
▁bleed	-11.7767
▁maimonide	-11.7768
▁curling	-11.7769
▁applet	-11.777
▁dravidian	-11.7771
▁invariant	-11.7771
▁unprecedented	-11.7771
▁ulster	-11.7771
▁emulator	-11.7772
▁hydraulic	-11.7772
▁ligand	-11.7772
▁freemasonry	-11.7774
▁mediation	-11.7777
▁carriage	-11.7777
rat	-11.7778
▁hbo	-11.7778
▁fence	-11.7779
▁usaf	-11.7779
▁scal	-11.7779
▁westward	-11.7781
bridge	-11.7781
▁compile	-11.7783
▁capacitor	-11.7785
▁kurd	-11.7787
▁bryan	-11.7788
▁observable	-11.7799
▁blam	-11.7804
▁flavour	-11.7806
▁dre	-11.7807
▁karen	-11.7808
ew	-11.7808
fast	-11.7809
▁centauri	-11.7811
▁laugh	-11.7812
▁spam	-11.7823
▁propell	-11.7823
▁franks	-11.7824
▁beache	-11.7827
▁samoa	-11.7828
▁dodo	-11.7829
▁levy	-11.7832
▁fork	-11.7833
▁risc	-11.7834
▁thank	-11.7835
▁aberration	-11.7837
▁preliminar	-11.7837
▁coherent	-11.7837
▁mandelbrot	-11.7837
▁kyrgyzstan	-11.7837
▁magistrate	-11.7837
▁conscience	-11.7837
▁syndicate	-11.7837
▁lethal	-11.7837
▁prosecutor	-11.7837
▁mosaic	-11.7837
▁comoro	-11.7837
▁quixot	-11.7837
▁repli	-11.7838
▁satirical	-11.7838
▁dramatist	-11.7838
▁trunk	-11.7839
▁esther	-11.7839
▁cryptanalys	-11.7839
▁persuade	-11.7839
▁upright	-11.7839
▁projectile	-11.784
sk	-11.784
▁bermud	-11.7842
▁sartre	-11.7842
▁swan	-11.7844
▁purported	-11.7847
▁reactive	-11.7847
star	-11.7855
▁calvinist	-11.7855
▁robber	-11.7855
▁ido	-11.7857
▁stimul	-11.7858
▁racism	-11.7859
▁needle	-11.7863
▁afonso	-11.7864
bb	-11.7866
▁cruz	-11.7872
feld	-11.7873
▁dynast	-11.7874
▁mandolin	-11.7875
▁informally	-11.7878
▁oppress	-11.7878
din	-11.7879
talk	-11.788
▁mps	-11.788
▁possesse	-11.7885
▁endless	-11.7886
▁ger	-11.7888
▁rim	-11.7892
▁carr	-11.7893
▁persuad	-11.79
oni	-11.79
▁improper	-11.7902
▁auschwitz	-11.7902
▁mohammed	-11.7903
▁edict	-11.7903
finish	-11.7904
▁sampling	-11.7904
▁meteorite	-11.7904
▁rpg	-11.7906
▁harrier	-11.7906
▁detector	-11.7907
▁sketche	-11.7909
nson	-11.7911
▁harass	-11.7912
▁turkic	-11.7915
▁skeptical	-11.7915
▁bald	-11.7918
▁slash	-11.792
▁flora	-11.7921
▁nin	-11.7923
▁orwell	-11.7926
quad	-11.7926
▁flexibil	-11.7927
▁portland	-11.7929
▁provok	-11.7938
▁px	-11.7939
▁dye	-11.7941
▁theft	-11.7941
▁plo	-11.7943
juana	-11.7946
▁blitz	-11.7949
▁stripe	-11.795
ique	-11.795
▁allocat	-11.7951
▁willie	-11.7953
▁lotu	-11.7963
let	-11.7964
▁mold	-11.7964
▁legitima	-11.7968
▁curriculum	-11.7969
▁decreasing	-11.7969
▁hussein	-11.7969
▁mcduck	-11.7969
▁scrooge	-11.7969
pin	-11.7969
▁somerset	-11.7969
▁freezing	-11.7969
▁painful	-11.797
▁victorious	-11.797
▁foil	-11.797
▁buchan	-11.7971
▁remix	-11.7972
▁tibetan	-11.7972
▁expressway	-11.7973
locked	-11.7973
▁rahman	-11.7973
▁blocked	-11.7974
▁conservat	-11.7976
▁mir	-11.7977
▁confirmation	-11.7978
ven	-11.7979
▁leet	-11.7982
▁pedal	-11.7983
▁terra	-11.7983
▁richardson	-11.7985
▁genital	-11.7985
▁sig	-11.7986
▁invitation	-11.799
desirable	-11.7991
▁refusal	-11.7997
pox	-11.801
▁lucid	-11.801
▁overhead	-11.8011
▁theodor	-11.802
▁hoc	-11.8021
▁polk	-11.8024
▁pleas	-11.8025
▁sighting	-11.8025
court	-11.8029
lock	-11.8031
▁fide	-11.8033
▁modernism	-11.8033
▁keat	-11.8035
▁inexpensive	-11.8035
▁motif	-11.8035
▁certification	-11.8035
▁diagnostic	-11.8035
▁funny	-11.8036
anach	-11.8036
▁fredericton	-11.8036
▁pilgrimage	-11.8036
▁cyanide	-11.8036
▁teaches	-11.8037
▁cooperative	-11.8037
▁litre	-11.8038
▁operative	-11.8039
▁dock	-11.8039
ranium	-11.8041
▁perpetual	-11.8041
▁heading	-11.8043
▁essex	-11.8044
▁metaphysical	-11.8049
▁saharan	-11.805
▁choices	-11.8052
▁allegor	-11.8052
▁publishe	-11.8057
▁dear	-11.8058
▁priva	-11.8068
▁ek	-11.807
▁mariner	-11.8076
▁remarkabl	-11.8078
▁satisfi	-11.8078
▁stevens	-11.8082
▁flank	-11.8084
▁nero	-11.8085
▁synthesiz	-11.8085
▁tender	-11.8087
shi	-11.809
▁nationalit	-11.8091
▁austro	-11.8094
ological	-11.8097
▁om	-11.8098
▁aerodynamic	-11.8099
▁murphy	-11.8102
▁unwilling	-11.8102
▁monorail	-11.8102
▁junta	-11.8103
▁counterpoint	-11.8103
▁beagle	-11.8104
erson	-11.8104
▁marlin	-11.8104
▁kissinger	-11.8106
▁subway	-11.8106
▁analyst	-11.8106
▁rift	-11.8107
▁incline	-11.8108
▁voiceless	-11.8111
▁bahama	-11.8112
▁destiny	-11.8112
▁supplier	-11.8118
▁unify	-11.8119
▁martha	-11.8121
▁recorder	-11.8123
▁johnston	-11.8126
▁ox	-11.8126
▁cocoa	-11.8132
▁ellipse	-11.8132
▁coloss	-11.8134
anne	-11.8135
▁encompasse	-11.8146
▁cage	-11.8147
ians	-11.8147
▁signall	-11.8148
▁lense	-11.815
▁rust	-11.8151
▁cer	-11.8156
▁spots	-11.8157
▁fermi	-11.8162
▁behavioral	-11.8167
▁genealogy	-11.817
▁imperative	-11.817
▁sequential	-11.817
▁pentagon	-11.817
▁unanimous	-11.817
▁nanotechnolog	-11.817
▁privatization	-11.8171
cartes	-11.8171
▁mascot	-11.8171
▁algol	-11.8172
▁supervision	-11.8172
▁bremen	-11.8172
▁belarusian	-11.8173
▁beginner	-11.8173
▁jacobite	-11.8173
▁helpful	-11.8173
▁analyze	-11.8174
▁hux	-11.8175
▁niger	-11.8176
▁crosb	-11.8178
▁sanctuar	-11.8179
scape	-11.818
▁invok	-11.8181
idge	-11.8183
▁hon	-11.8185
▁eager	-11.8187
▁dogma	-11.8187
▁faso	-11.8188
▁specifie	-11.8188
gh	-11.819
▁isolate	-11.819
▁mayo	-11.8192
▁corona	-11.8193
▁ddt	-11.8194
▁tooth	-11.8196
▁shout	-11.8197
▁pitt	-11.8199
▁seventeen	-11.8203
▁agnostic	-11.8204
▁ant	-11.8204
▁enlarg	-11.8205
▁routing	-11.8208
▁bismar	-11.8209
▁bradle	-11.8211
▁manson	-11.8213
aki	-11.8215
▁phosphor	-11.8216
polis	-11.8216
▁kw	-11.8223
▁tito	-11.8228
▁sil	-11.8233
mid	-11.8233
▁ji	-11.8238
▁bureaucrac	-11.8238
▁nanotube	-11.8238
▁psychedelic	-11.8238
▁metropolis	-11.8238
▁quantitative	-11.8239
▁pickup	-11.824
▁reputed	-11.824
▁caution	-11.824
▁jakob	-11.8241
▁wagon	-11.8244
▁colombian	-11.8244
▁miner	-11.8244
▁tang	-11.8247
▁syriac	-11.8249
▁islamist	-11.8251
▁breeds	-11.8252
▁clockwise	-11.8253
▁exete	-11.8258
▁capoeir	-11.8259
▁preacher	-11.8261
▁kate	-11.8262
▁pad	-11.827
▁ide	-11.8276
▁peacekeep	-11.829
▁abnormal	-11.8292
▁reasonabl	-11.8294
ssex	-11.8294
▁pri	-11.8295
▁minds	-11.8296
▁horns	-11.8297
ermont	-11.8305
▁dor	-11.8305
▁crazy	-11.8307
▁basket	-11.8307
▁hellenic	-11.8307
▁crimson	-11.8308
▁drainage	-11.8308
▁stuck	-11.8308
▁fibo	-11.831
▁dukes	-11.8311
▁cdu	-11.8311
▁coleman	-11.8312
▁marlow	-11.8315
▁characteris	-11.832
▁sued	-11.832
link	-11.8321
▁glove	-11.8321
▁commutativ	-11.8322
▁woodland	-11.8323
▁elemental	-11.833
▁meteor	-11.8334
▁linda	-11.8335
▁energie	-11.8337
▁loading	-11.8343
▁advoca	-11.8351
▁bulb	-11.8351
gu	-11.8354
quest	-11.8356
▁lots	-11.8357
▁pigs	-11.8361
▁salmon	-11.8361
▁collaborat	-11.8363
▁techno	-11.8365
▁hoffman	-11.8366
▁organizational	-11.8367
▁chin	-11.837
ze	-11.8371
▁perse	-11.8374
▁consort	-11.8375
▁confucius	-11.8375
▁rectangular	-11.8375
▁senegal	-11.8375
▁blizzard	-11.8375
▁soprano	-11.8375
▁diablo	-11.8375
▁pleasant	-11.8376
▁eurovision	-11.8376
▁bueno	-11.8376
▁epileps	-11.8376
▁magnus	-11.8376
▁commodity	-11.8377
▁annotat	-11.8378
▁dyson	-11.838
▁commuter	-11.8382
▁optics	-11.8383
▁spott	-11.8384
type	-11.8386
▁hedge	-11.8387
evich	-11.8388
▁melodic	-11.8391
▁revers	-11.8391
▁wile	-11.8392
▁contraction	-11.8393
▁panic	-11.8398
▁ftp	-11.8399
bit	-11.8402
▁historia	-11.8404
▁tuberculo	-11.8406
tt	-11.8408
▁lute	-11.8408
▁compensate	-11.8414
▁manipulat	-11.8417
tings	-11.8418
▁tau	-11.8429
▁exercis	-11.8433
▁brands	-11.8437
▁emit	-11.8438
▁tur	-11.8442
▁acc	-11.8442
▁senses	-11.8444
▁prefixe	-11.8445
▁cymbal	-11.8445
▁delegation	-11.8445
▁leisure	-11.8445
▁cromwell	-11.8445
▁chechen	-11.8445
▁rwanda	-11.8445
▁aikido	-11.8445
▁sap	-11.8446
▁pigment	-11.8446
▁handheld	-11.8447
▁ethnolog	-11.8447
▁enthusiastic	-11.8448
▁kgb	-11.8448
▁gerard	-11.8449
▁mansion	-11.8449
▁shoe	-11.8453
▁pie	-11.8456
eenth	-11.8456
▁curry	-11.8458
▁ket	-11.8467
▁copp	-11.8468
▁consistenc	-11.8469
▁commune	-11.847
▁santia	-11.847
▁arian	-11.8473
▁jeremia	-11.8475
continental	-11.8477
▁warehouse	-11.8477
rising	-11.8478
▁captive	-11.8478
een	-11.8479
▁nh	-11.8479
▁bod	-11.848
eur	-11.8483
▁pledge	-11.8483
mus	-11.8485
▁codec	-11.8487
▁disciple	-11.8489
▁latino	-11.849
▁quo	-11.8498
▁bloom	-11.8499
▁nathan	-11.8499
▁tenn	-11.8501
▁absurd	-11.8502
▁censorshi	-11.8505
▁acupunctur	-11.8511
▁ev	-11.8512
▁fountain	-11.8514
▁beirut	-11.8515
▁adobe	-11.8515
▁reminiscent	-11.8515
▁gundam	-11.8515
▁apartheid	-11.8515
▁criterion	-11.8515
▁inflict	-11.8515
▁electorate	-11.8515
▁luftwaffe	-11.8515
▁paragraph	-11.8515
▁garcia	-11.8515
▁primate	-11.8516
▁modular	-11.8516
▁deviation	-11.8516
▁communal	-11.8516
▁transmitter	-11.8516
▁chorus	-11.8517
▁combatant	-11.8519
▁clever	-11.852
▁militari	-11.852
▁jacket	-11.852
▁transcendental	-11.8523
▁lineup	-11.8526
▁disguise	-11.8526
▁magna	-11.8527
▁summers	-11.8527
abbage	-11.8527
▁herme	-11.8533
▁armament	-11.8536
▁subspeci	-11.8537
▁candy	-11.854
▁speculate	-11.854
enders	-11.854
win	-11.8542
▁gran	-11.8543
▁insider	-11.8549
▁therapeutic	-11.8554
▁confess	-11.8554
▁pod	-11.8556
▁brahms	-11.8557
tti	-11.8557
▁halo	-11.8562
▁browns	-11.8563
▁replica	-11.8572
▁murderer	-11.8581
▁wreck	-11.8585
▁pamphlet	-11.8585
▁battlecruiser	-11.8585
▁inaccurate	-11.8585
▁tornado	-11.8585
▁illustrator	-11.8586
▁recession	-11.8586
▁maternal	-11.8586
▁plaque	-11.8586
▁falsifi	-11.8586
▁flux	-11.8587
▁vaccine	-11.8588
▁puritan	-11.8589
▁inconsistent	-11.8589
▁mn	-11.8591
▁corpse	-11.8591
▁gotham	-11.8591
▁jamal	-11.8596
▁stimulate	-11.8598
▁graves	-11.8609
▁scrimmage	-11.8609
▁lease	-11.8612
▁weird	-11.8617
▁retrieve	-11.8621
▁cyclic	-11.8625
▁useless	-11.8629
▁sino	-11.8633
▁insult	-11.8635
▁uc	-11.8638
▁leopold	-11.8639
▁erik	-11.8641
▁accessor	-11.8642
▁unclea	-11.8647
▁nutrition	-11.8649
▁pond	-11.865
▁bourgeois	-11.8656
▁bilingual	-11.8656
▁covalent	-11.8657
▁guiana	-11.8657
▁ia	-11.8657
▁pennant	-11.8657
▁tribune	-11.8658
▁dub	-11.8658
▁racist	-11.8659
▁muscular	-11.866
▁cpc	-11.8661
▁focal	-11.8661
▁slit	-11.8662
▁deposition	-11.8664
▁penis	-11.8664
▁scalar	-11.8672
▁inversion	-11.8673
▁dev	-11.868
▁potato	-11.868
▁camouflage	-11.868
unlight	-11.8681
▁conjugation	-11.8694
cene	-11.8694
con	-11.8694
▁token	-11.8694
▁beats	-11.8695
▁revert	-11.8696
ioc	-11.8698
▁ln	-11.8701
wiki	-11.8706
▁fake	-11.8707
▁mainz	-11.8711
▁cohe	-11.8712
pcc	-11.8713
▁criticize	-11.8715
ridge	-11.8717
▁scholastic	-11.8717
▁wang	-11.8718
▁mash	-11.8718
▁emigrat	-11.8722
▁ching	-11.8724
▁mat	-11.8724
▁kar	-11.8725
▁distort	-11.8726
▁institutional	-11.8727
▁abrupt	-11.8728
▁archimede	-11.8728
▁twelfth	-11.8728
▁uruguay	-11.8728
▁swallow	-11.8728
▁stabiliz	-11.8728
▁weimar	-11.8728
▁prairie	-11.8728
▁invariabl	-11.8728
▁convergence	-11.8728
▁creole	-11.8728
▁nebula	-11.8728
▁disturbance	-11.8729
▁ladder	-11.873
▁hawke	-11.8731
▁hor	-11.8736
▁apr	-11.8741
▁chan	-11.8742
▁tiberi	-11.8745
▁maxim	-11.875
▁trips	-11.875
▁brush	-11.8752
ala	-11.8752
▁arrange	-11.8752
▁satisfie	-11.8754
ock	-11.8754
▁tam	-11.876
▁attacker	-11.876
▁abi	-11.8765
ena	-11.8769
▁liberat	-11.877
▁bla	-11.8772
fa	-11.8775
▁theta	-11.8775
stellar	-11.8775
▁mourn	-11.8776
▁vern	-11.878
bert	-11.8785
▁catcher	-11.8793
▁ddr	-11.8795
▁dig	-11.8799
▁honolulu	-11.88
▁visigoth	-11.88
▁asbestos	-11.88
▁skyscraper	-11.88
▁giusepp	-11.88
▁hittite	-11.88
▁dundee	-11.88
▁macmill	-11.88
▁tumor	-11.88
▁oscillator	-11.88
▁justinian	-11.8801
▁abelian	-11.8801
▁narcotic	-11.8802
▁absinthe	-11.8802
▁cameron	-11.8803
▁smash	-11.8803
▁borg	-11.8804
▁videos	-11.8804
▁viral	-11.8804
▁influx	-11.8806
▁annal	-11.8806
▁diana	-11.8814
▁subcontinent	-11.882
bachev	-11.8821
▁rec	-11.8824
▁karp	-11.8825
▁dartmo	-11.8825
▁seller	-11.8825
▁profitable	-11.8826
▁cultivat	-11.883
▁diplomac	-11.8835
▁stark	-11.8836
▁jerem	-11.8841
▁simpsons	-11.8846
▁thunder	-11.8847
▁relic	-11.885
▁accuse	-11.885
brick	-11.8852
▁compell	-11.8852
▁tile	-11.8857
▁caliph	-11.8859
▁wash	-11.886
▁tunisia	-11.8862
ren	-11.8862
mer	-11.8862
▁babylonia	-11.8865
▁bash	-11.8866
▁ker	-11.8868
▁hung	-11.8869
▁teenage	-11.8869
▁supersed	-11.8871
▁pejorative	-11.8872
▁septuag	-11.8872
▁vernacular	-11.8872
▁triangular	-11.8872
▁aromatic	-11.8872
▁exclusion	-11.8872
▁threshold	-11.8872
▁trajector	-11.8872
▁councillor	-11.8872
▁samurai	-11.8873
▁emigration	-11.8874
▁lat	-11.8875
▁uncover	-11.8875
▁navigab	-11.8875
▁elegant	-11.8877
▁tucker	-11.8878
place	-11.8879
▁switche	-11.8879
▁emancipati	-11.8882
▁slovak	-11.8884
▁backup	-11.8884
▁koan	-11.8884
▁discs	-11.889
▁audit	-11.8892
▁heath	-11.8897
oi	-11.8897
▁prosper	-11.8899
▁humour	-11.8903
▁borrowing	-11.8904
ullah	-11.8908
▁vh	-11.8915
▁dissent	-11.8916
▁murdoc	-11.8918
ick	-11.8923
▁thorn	-11.8925
▁fax	-11.8926
▁butter	-11.8926
▁kung	-11.8929
▁centraliz	-11.8929
▁pinyin	-11.893
▁busy	-11.8933
▁leone	-11.8935
▁verifi	-11.8938
▁ivy	-11.8941
▁burundi	-11.8942
▁scann	-11.8943
▁straightforward	-11.8945
▁chandler	-11.8945
▁genitive	-11.8945
▁whitlam	-11.8945
▁misunderstand	-11.8945
▁malm	-11.8945
▁nacional	-11.8945
▁bargain	-11.8945
▁custod	-11.8945
▁infectious	-11.8945
▁rediscover	-11.8945
meter	-11.8946
▁doubtful	-11.8946
▁griffin	-11.8946
▁enhancement	-11.8946
▁grasp	-11.8946
▁physiological	-11.8948
▁motorway	-11.8948
▁monica	-11.8948
▁larp	-11.8949
▁disneyland	-11.8952
▁nca	-11.8954
▁ancestral	-11.8958
▁variance	-11.8959
▁modernist	-11.8964
anity	-11.8965
▁accumulate	-11.8967
▁traveller	-11.8969
▁hali	-11.897
laine	-11.897
▁gl	-11.8972
▁ascetic	-11.8975
▁anyway	-11.8977
▁dada	-11.8978
▁interven	-11.898
▁abel	-11.8985
▁dictate	-11.8986
▁marco	-11.8988
▁lcd	-11.8995
▁sunk	-11.8998
▁springer	-11.9001
▁bassoon	-11.9002
sistence	-11.9004
▁aud	-11.9007
▁cybernetic	-11.9008
▁obedien	-11.9009
▁nepal	-11.9011
ula	-11.9016
▁stereo	-11.9017
▁diagonal	-11.9018
▁exterior	-11.9018
▁dhcp	-11.9019
▁karachi	-11.9019
▁metabolic	-11.9019
▁unaware	-11.9019
▁narrator	-11.9019
▁neighbourhood	-11.9019
▁tudor	-11.9019
▁pertain	-11.9019
▁jesse	-11.902
▁miniature	-11.902
▁shareholder	-11.902
hall	-11.9021
▁bowler	-11.9022
▁dt	-11.9022
▁cereal	-11.9023
▁parodie	-11.9023
▁bracket	-11.9024
▁mather	-11.9027
▁knut	-11.9029
▁schuma	-11.9032
web	-11.9032
▁insane	-11.9033
▁chef	-11.9035
▁addis	-11.9037
pi	-11.9045
▁mot	-11.9048
▁mecca	-11.9048
▁liabilit	-11.9049
▁codifie	-11.9054
▁grt	-11.9059
▁mock	-11.9064
▁morale	-11.9065
▁neural	-11.9066
▁nanc	-11.9066
▁bbs	-11.9073
▁nasal	-11.9077
▁philipp	-11.9084
▁surf	-11.9086
▁accelerate	-11.909
ig	-11.9091
▁prescription	-11.9093
▁muppet	-11.9093
▁psychiatrist	-11.9093
▁chaotic	-11.9093
▁eminent	-11.9093
▁taboo	-11.9093
▁consortium	-11.9093
▁werner	-11.9094
▁instructor	-11.9094
▁ceiling	-11.9096
▁gill	-11.9096
▁ter	-11.9096
cholesterol	-11.9097
▁analogue	-11.9097
▁briton	-11.9098
▁warlord	-11.9099
▁doubled	-11.9102
mo	-11.9102
▁jehov	-11.9103
▁lone	-11.9105
▁coordinat	-11.9108
▁doll	-11.911
▁cid	-11.9113
▁inspector	-11.9116
cea	-11.9121
▁divers	-11.9123
▁popp	-11.9123
▁exaggerated	-11.9125
▁yemen	-11.9125
motive	-11.9128
▁snap	-11.913
radesh	-11.9131
▁aires	-11.9132
▁oblig	-11.9134
▁irrelevan	-11.9138
bourg	-11.9142
hr	-11.9145
▁comfortabl	-11.9152
▁geologic	-11.9155
view	-11.9155
light	-11.9156
▁constitut	-11.9157
▁tibet	-11.9164
▁janet	-11.9166
▁exemplifie	-11.9167
▁kiribat	-11.9167
▁sporadic	-11.9167
▁diatonic	-11.9167
▁participle	-11.9167
▁protectorate	-11.9167
▁reservation	-11.9167
▁zoroastrian	-11.9168
▁premium	-11.9168
▁optimization	-11.9168
▁eichmann	-11.9168
▁graphite	-11.9169
▁bean	-11.9169
▁imitation	-11.9169
▁gladiator	-11.917
▁adaptive	-11.9171
▁coache	-11.9171
▁supremac	-11.9171
▁insertion	-11.9171
▁markup	-11.9172
▁pardon	-11.9173
▁electromagnet	-11.9174
▁dive	-11.9174
▁saddle	-11.9175
▁chick	-11.9175
▁atm	-11.9175
▁majesty	-11.9176
nen	-11.9177
▁joker	-11.9178
▁satie	-11.9178
▁involuntary	-11.9178
▁moistur	-11.918
▁volta	-11.9181
▁peroxide	-11.9182
▁dolly	-11.9183
▁jumps	-11.9186
▁replicat	-11.9188
▁cis	-11.9191
idic	-11.9195
▁idealism	-11.9195
▁mendel	-11.9202
▁piet	-11.9202
▁converge	-11.9202
▁modem	-11.9203
eth	-11.9206
▁kite	-11.9206
▁pulit	-11.9206
▁stretche	-11.9206
▁ester	-11.9217
▁pension	-11.922
▁plutoni	-11.9221
▁duel	-11.9223
▁attested	-11.9225
▁remind	-11.9226
▁relational	-11.9226
▁niche	-11.923
▁outsider	-11.9231
▁caspia	-11.9231
▁mirrors	-11.9232
▁foo	-11.9236
▁betray	-11.9239
▁snyder	-11.9242
▁tanzania	-11.9242
▁exxon	-11.9242
▁nirvana	-11.9242
▁demolish	-11.9242
▁stupid	-11.9243
▁grandmother	-11.9243
▁glorious	-11.9243
▁reclaim	-11.9243
▁beckham	-11.9243
▁liturgical	-11.9244
▁shelley	-11.9244
▁homogeneous	-11.9244
▁chronological	-11.9245
▁rebuilding	-11.9245
▁octavian	-11.9246
▁fitting	-11.9247
▁alchemist	-11.9247
▁subculture	-11.9248
▁shelf	-11.9248
▁quaker	-11.925
▁await	-11.9251
▁loyalist	-11.9251
kind	-11.9252
▁boron	-11.9252
▁leftist	-11.9253
▁boo	-11.9254
▁flown	-11.9259
▁upcom	-11.926
▁bennett	-11.9262
▁parser	-11.9263
▁evangelist	-11.9263
▁joey	-11.9264
ju	-11.9267
▁subdivid	-11.9269
▁ignati	-11.9271
▁orca	-11.9273
image	-11.9274
▁prophetic	-11.9275
▁promoter	-11.9282
▁tear	-11.9283
▁marl	-11.9283
▁nomad	-11.9283
▁wedge	-11.929
▁perfection	-11.9293
▁golfer	-11.9293
▁witt	-11.9296
▁polo	-11.9297
▁alarm	-11.9299
▁casa	-11.9301
▁clinic	-11.9302
▁eccentric	-11.9305
▁pioneering	-11.9313
▁commence	-11.9314
▁memetic	-11.9315
▁trinidad	-11.9317
▁convenience	-11.9318
▁cocktail	-11.9318
▁jpeg	-11.9318
▁hypertext	-11.9318
▁caliphate	-11.9318
▁newsgroup	-11.9319
▁lowercase	-11.9319
▁sumerian	-11.9319
▁literate	-11.9319
▁accumulation	-11.932
▁milestone	-11.932
▁illuminat	-11.932
▁guant	-11.9321
▁carbine	-11.9322
▁anomal	-11.9324
▁owl	-11.9324
▁conqueror	-11.9324
▁judo	-11.9326
▁epsilon	-11.9327
▁kayak	-11.9327
▁xvi	-11.9327
▁sf	-11.9327
▁fuck	-11.9328
▁grouping	-11.9328
▁heal	-11.9331
▁gorge	-11.9333
ud	-11.9337
▁ezeki	-11.9338
▁galactic	-11.9338
▁pasture	-11.9338
▁wei	-11.9339
▁enduring	-11.9342
▁marines	-11.9343
▁amine	-11.9345
▁jamaican	-11.9346
▁murders	-11.935
▁jona	-11.9353
wain	-11.9354
▁gar	-11.9354
▁tragic	-11.9354
▁papac	-11.9357
▁ole	-11.9357
▁intervene	-11.9359
▁lager	-11.936
▁persona	-11.9364
▁slip	-11.9364
▁moby	-11.9364
▁relocat	-11.9367
▁depress	-11.9376
ethanol	-11.938
▁burma	-11.9383
▁anatolia	-11.9385
▁somalia	-11.9393
▁ottawa	-11.9394
▁carnival	-11.9395
▁magdalen	-11.9397
▁wycliff	-11.9398
▁repent	-11.9399
▁lucky	-11.9403
▁ness	-11.9406
▁packer	-11.9407
▁happening	-11.9408
▁phonolog	-11.9408
▁aq	-11.9411
▁jacki	-11.9413
mp	-11.9413
▁bestow	-11.9414
▁yorkshire	-11.9414
▁contention	-11.9418
br	-11.9419
point	-11.9421
▁chassi	-11.9422
emost	-11.9428
▁cet	-11.9434
▁coma	-11.9438
▁hindus	-11.9439
▁cites	-11.9445
▁oval	-11.9447
▁universiti	-11.9448
▁destin	-11.9448
▁spill	-11.9453
▁tricks	-11.9455
▁disturb	-11.9458
▁gand	-11.946
fb	-11.946
▁siberia	-11.9461
▁ornament	-11.9465
▁quake	-11.9466
▁rip	-11.9467
▁hobby	-11.9468
▁girlfriend	-11.9471
▁respirator	-11.9471
▁mcdonald	-11.9471
▁bissau	-11.9471
▁ascension	-11.9472
▁preposition	-11.9472
▁fibre	-11.9472
▁stronghold	-11.9472
▁carpenter	-11.9472
▁repetition	-11.9472
▁jakarta	-11.9472
▁horace	-11.9473
▁streak	-11.9473
▁aquarium	-11.9474
▁chomsky	-11.9474
▁overlapp	-11.9474
▁hun	-11.9475
▁comeback	-11.9475
▁seminal	-11.9475
▁discoverer	-11.9475
▁initiation	-11.9476
▁brewers	-11.9477
▁besieg	-11.9477
▁inflection	-11.9477
dicative	-11.9482
▁sara	-11.9482
▁alma	-11.9485
▁marina	-11.9486
▁hoax	-11.9488
▁benn	-11.949
▁anode	-11.9492
tte	-11.9498
▁sal	-11.9499
▁interpol	-11.9506
anbul	-11.9506
quina	-11.9511
▁novella	-11.9515
▁lungs	-11.9519
▁specialize	-11.9522
▁ravens	-11.9524
▁fog	-11.9533
▁glad	-11.9534
▁huns	-11.9535
lington	-11.9535
▁referee	-11.9536
gar	-11.9536
▁torn	-11.9538
var	-11.954
▁drill	-11.9547
▁burgund	-11.9547
▁bizarre	-11.9549
▁convincing	-11.9549
▁incidence	-11.9549
▁jealous	-11.9549
▁morpheme	-11.9549
▁humphrey	-11.9549
▁shrink	-11.9549
▁gershwin	-11.9549
▁lorrain	-11.9549
▁pulp	-11.955
▁alumin	-11.955
▁emulation	-11.955
▁transliteration	-11.955
▁microprocessors	-11.9551
▁educator	-11.9552
▁gimp	-11.9553
▁roller	-11.9555
▁exam	-11.9555
▁salary	-11.9556
▁fig	-11.9557
▁passport	-11.9557
▁cork	-11.9557
▁canyon	-11.9562
▁parasite	-11.9566
▁halle	-11.9567
▁mead	-11.9572
▁dragons	-11.9573
▁faroe	-11.9576
▁deuteronom	-11.9577
▁percy	-11.9584
▁lc	-11.9585
▁quay	-11.9588
tyler	-11.959
▁mclu	-11.959
hauer	-11.9591
▁vf	-11.9593
▁pier	-11.9597
▁frei	-11.96
▁tips	-11.9601
▁kerry	-11.9601
▁troubles	-11.9602
held	-11.961
▁lad	-11.9612
▁centred	-11.9615
erox	-11.9616
pan	-11.9621
▁fandom	-11.9623
eslie	-11.9625
izing	-11.9625
▁chiropract	-11.9626
▁eli	-11.9626
▁uninhabit	-11.9627
▁inaugural	-11.9627
▁paramilitar	-11.9627
▁reconnaissance	-11.9627
▁kafka	-11.9627
▁submission	-11.9627
▁appendix	-11.9627
▁euphemism	-11.9627
▁brittan	-11.9627
▁impeachment	-11.9627
▁sitcom	-11.9627
▁passionate	-11.9628
▁zionist	-11.9629
▁goldfish	-11.9629
▁hazardous	-11.963
▁scientolog	-11.963
▁flagship	-11.963
▁mound	-11.9631
▁brotherhood	-11.9631
▁statutor	-11.9631
▁ellen	-11.9631
▁badge	-11.9633
▁resume	-11.9633
ogue	-11.9641
▁maya	-11.9643
▁unite	-11.965
▁southward	-11.9653
▁cpr	-11.9653
▁eco	-11.9653
▁crane	-11.9655
▁odin	-11.9657
▁incumbent	-11.9659
▁plea	-11.9663
abella	-11.9666
▁companions	-11.9667
▁midrash	-11.9669
▁jul	-11.9669
▁lore	-11.9674
▁pronounce	-11.9682
▁deer	-11.9686
▁mast	-11.9691
▁seventy	-11.9693
▁banning	-11.9695
▁papua	-11.9695
▁affection	-11.9696
▁incredible	-11.9697
▁hiding	-11.9699
beck	-11.9702
▁brando	-11.9703
▁boulevard	-11.9706
▁strife	-11.9706
▁repeal	-11.9706
▁grenade	-11.9706
▁quotient	-11.9706
▁unilateral	-11.9706
▁garment	-11.9707
▁degradation	-11.9707
▁collaborator	-11.9707
▁aspiration	-11.9707
▁tempo	-11.9709
▁titus	-11.9713
▁gould	-11.9713
▁eb	-11.9715
▁statues	-11.9715
▁lossless	-11.9718
▁rid	-11.9719
▁ok	-11.9723
▁robertson	-11.9725
▁imam	-11.9732
▁gag	-11.9735
▁sanger	-11.9736
▁beaver	-11.9739
▁malaysian	-11.9742
▁acm	-11.9743
▁cooler	-11.9745
▁ller	-11.9747
named	-11.9751
▁rage	-11.9755
▁bir	-11.9757
▁vic	-11.9758
▁vertic	-11.9759
▁spur	-11.976
▁bl	-11.9765
▁cyg	-11.9767
▁nun	-11.9769
▁chels	-11.9772
▁crt	-11.9772
▁summ	-11.9776
▁barnes	-11.9778
▁trent	-11.9779
▁cheers	-11.978
etic	-11.9781
▁slid	-11.9781
▁dressing	-11.9782
▁keynes	-11.9783
▁freemason	-11.9783
▁redesign	-11.9784
▁impair	-11.9784
▁corp	-11.9785
▁antidepressant	-11.9785
▁enthusiasm	-11.9785
▁precaution	-11.9785
▁superficial	-11.9785
▁detention	-11.9785
▁curtain	-11.9786
▁mysql	-11.9786
▁extermination	-11.9786
▁jeep	-11.9786
▁delicate	-11.9786
▁determinant	-11.9786
▁repression	-11.9787
▁textual	-11.9787
▁botanical	-11.9788
▁cnn	-11.9789
▁disappearance	-11.979
▁tangent	-11.9791
▁iodin	-11.9791
▁simulate	-11.9793
▁haitian	-11.9794
▁verla	-11.9794
▁anal	-11.9796
▁ez	-11.9796
▁dedication	-11.9798
▁beria	-11.9798
▁gallon	-11.9799
▁rugged	-11.9803
▁dell	-11.9804
▁northward	-11.9804
▁functionalit	-11.9807
▁resurgen	-11.981
▁shang	-11.981
onius	-11.9813
▁bab	-11.9818
▁nineteen	-11.9827
▁biotechnolog	-11.983
lon	-11.9831
▁chromi	-11.9836
▁accumulat	-11.9839
▁lean	-11.9839
aga	-11.9843
▁mole	-11.9844
▁clocks	-11.9848
▁astros	-11.9848
▁interr	-11.9851
▁crystallin	-11.9851
▁mangane	-11.9852
▁contaminat	-11.9853
▁offend	-11.9854
▁theodosi	-11.9856
▁constrain	-11.9856
▁fraternit	-11.9856
▁mania	-11.9859
▁exponent	-11.9862
arvin	-11.9864
ati	-11.9864
▁sweep	-11.9865
▁pivot	-11.9865
▁vacation	-11.9865
▁imprint	-11.9865
▁surgical	-11.9865
▁vicinit	-11.9865
▁aquatic	-11.9866
▁maximilian	-11.9866
▁correspondent	-11.9866
▁emirate	-11.9866
▁bangla	-11.9866
▁plaza	-11.9866
▁splitting	-11.9867
▁banknote	-11.9868
▁separatist	-11.987
▁forbid	-11.9872
▁hatch	-11.9873
▁heinz	-11.9874
▁kosh	-11.9877
▁dignit	-11.9877
▁denie	-11.9878
▁gemini	-11.9879
▁matric	-11.9881
▁robotic	-11.9882
▁lear	-11.9882
▁fragil	-11.9888
▁bonn	-11.989
▁nichols	-11.9891
▁crucifix	-11.9892
▁nitro	-11.9895
▁microscopic	-11.9897
lar	-11.9898
▁depriv	-11.9905
▁expresse	-11.9908
▁mailing	-11.9908
▁bon	-11.991
ire	-11.991
▁uniforms	-11.9911
▁royalist	-11.9912
▁koch	-11.9913
▁grim	-11.9914
hill	-11.9917
▁cater	-11.9918
▁marquis	-11.9924
▁xx	-11.9924
▁vor	-11.9933
▁bankrupt	-11.9943
▁fascinat	-11.9944
▁corinth	-11.9945
▁kerouac	-11.9946
▁prophecie	-11.9946
▁reunification	-11.9946
▁saskatchewan	-11.9946
▁chariot	-11.9946
▁clifford	-11.9946
▁schopen	-11.9946
▁throat	-11.9946
▁rudolph	-11.9946
▁canvas	-11.9947
▁principia	-11.9947
▁tomato	-11.9947
▁paternal	-11.9947
▁discount	-11.9948
▁usher	-11.9949
▁derek	-11.995
▁motherboard	-11.9951
ood	-11.9952
▁christie	-11.9953
▁garde	-11.9953
▁zulu	-11.9955
▁magician	-11.9956
▁eastward	-11.9956
▁doyle	-11.9956
▁sherman	-11.9957
▁blockade	-11.9957
iforme	-11.9959
▁golan	-11.996
▁bohr	-11.9961
▁demis	-11.9963
▁sac	-11.9965
▁cassi	-11.9965
▁spacetime	-11.9966
▁bohemian	-11.9968
rine	-11.9969
▁veni	-11.9969
▁elton	-11.997
▁maid	-11.997
▁patriotic	-11.9971
intage	-11.9974
▁dim	-11.9975
▁methyl	-11.9982
▁maple	-11.9983
▁lips	-11.9986
▁sup	-11.9987
▁brig	-11.9988
▁nf	-11.9989
▁hound	-11.9996
made	-11.9998
▁buyer	-11.9999
▁thriv	-12.0008
▁wield	-12.0013
▁palin	-12.0015
▁biographie	-12.0018
▁televis	-12.0018
▁maharashtr	-12.0022
▁devotion	-12.0023
▁coordinati	-12.0023
rus	-12.0024
▁epistemolog	-12.0024
▁bite	-12.0026
▁loanword	-12.0027
▁payload	-12.0027
▁turbo	-12.0027
▁spinning	-12.0028
▁nonsense	-12.0028
▁bombay	-12.0028
▁ratification	-12.0028
▁bred	-12.0029
▁stunt	-12.0031
▁springfield	-12.0031
▁gentleman	-12.0032
▁nhl	-12.0033
▁hector	-12.0033
▁mantle	-12.0033
▁mino	-12.0036
▁vocalist	-12.0038
▁minimize	-12.0038
roy	-12.004
werk	-12.0042
▁mime	-12.0043
▁levitic	-12.0044
▁dredd	-12.0044
grave	-12.0044
▁por	-12.0045
leigh	-12.0045
▁kilt	-12.0047
▁memes	-12.0049
▁finns	-12.0052
▁hinder	-12.0053
▁pile	-12.0055
eiro	-12.0056
▁ascent	-12.0057
▁marcel	-12.0058
▁ug	-12.0058
stadt	-12.0059
▁rican	-12.006
▁hm	-12.0064
▁excit	-12.0071
▁preaching	-12.0073
▁fece	-12.0076
▁veron	-12.0079
▁persecut	-12.0079
per	-12.008
▁primer	-12.0083
▁cecil	-12.0084
▁fitz	-12.0084
▁groove	-12.0088
▁mein	-12.0098
▁supervis	-12.01
▁forecast	-12.0107
▁highlander	-12.0107
▁solstice	-12.0109
▁sociologist	-12.0109
▁perennial	-12.011
▁lobby	-12.011
▁caliber	-12.011
▁klingon	-12.0111
▁signator	-12.0115
▁expose	-12.0116
▁grimm	-12.0117
▁aether	-12.0118
eville	-12.0121
▁prat	-12.0122
otte	-12.0123
▁fps	-12.0124
pped	-12.0126
▁gp	-12.0127
▁cows	-12.0131
▁fet	-12.0132
▁invalid	-12.0135
▁proliferati	-12.0138
araday	-12.0139
▁commemorat	-12.014
▁stellar	-12.0146
▁rotate	-12.0154
▁bugs	-12.0156
▁cen	-12.0157
▁baptiste	-12.016
▁lancast	-12.0166
▁brook	-12.0168
yl	-12.0171
▁inspire	-12.0173
▁authoris	-12.0176
▁pathogen	-12.0178
▁gale	-12.0179
▁namibia	-12.0181
▁assyria	-12.0182
▁cheat	-12.0182
▁shu	-12.0185
▁croat	-12.019
▁endeavour	-12.0192
▁mammoth	-12.0192
▁reunion	-12.0192
▁spaniard	-12.0192
▁ultraviole	-12.0192
▁premature	-12.0192
▁pragmatic	-12.0192
▁louvre	-12.0192
▁autistic	-12.0192
▁abalone	-12.0192
▁musashi	-12.0192
▁outlook	-12.0192
▁gangster	-12.0192
▁consulate	-12.0192
▁nai	-12.0192
▁tarzan	-12.0192
▁nucleotide	-12.0192
▁billiard	-12.0194
▁contentious	-12.0194
▁differentiation	-12.0194
▁athlon	-12.0195
▁mentor	-12.0196
▁squares	-12.0196
▁emir	-12.0197
▁lipid	-12.0199
▁signify	-12.02
▁suspicious	-12.0202
▁protector	-12.0202
▁avatar	-12.0204
▁andaman	-12.0204
▁cycling	-12.0205
▁spells	-12.0207
▁widen	-12.0208
iana	-12.0209
▁hijacker	-12.0212
▁abbott	-12.0214
▁santo	-12.0216
▁airliner	-12.0216
▁cosmologic	-12.0221
▁identifier	-12.0224
▁practis	-12.0229
▁namo	-12.0229
▁gia	-12.023
▁envelope	-12.0232
▁atkins	-12.0233
oa	-12.0234
ria	-12.0235
▁engraving	-12.0244
▁warhead	-12.0245
▁transcrib	-12.0246
▁hypothes	-12.0249
▁scream	-12.0252
nton	-12.0254
▁homeopath	-12.0267
ianna	-12.0272
▁diagnos	-12.0273
cha	-12.0273
▁tunnels	-12.0273
▁joachim	-12.0275
▁moncton	-12.0275
▁orthogonal	-12.0275
▁fujiwara	-12.0275
▁kaufman	-12.0275
▁doraemon	-12.0275
▁monotheism	-12.0275
▁archduke	-12.0275
▁versaille	-12.0275
▁ubiquitous	-12.0275
▁divergence	-12.0275
▁bebop	-12.0277
tech	-12.0277
▁remedy	-12.0277
▁interpolation	-12.0277
▁torpedo	-12.0278
▁contradictor	-12.0278
cal	-12.0278
▁subscriber	-12.0279
▁liber	-12.028
▁teammate	-12.0281
▁jardine	-12.0285
▁iconic	-12.0286
▁pasteur	-12.0287
▁inventors	-12.029
maker	-12.029
▁fitness	-12.0292
▁hungr	-12.0292
▁afra	-12.0294
▁imitat	-12.0297
ortex	-12.0299
▁barton	-12.0304
▁realization	-12.031
▁adjectives	-12.031
▁endors	-12.0319
▁rhodes	-12.0325
▁reconcile	-12.0328
▁barge	-12.0328
▁dispos	-12.033
▁tenor	-12.0331
fi	-12.0332
nor	-12.0334
▁ciphers	-12.0342
▁lucifer	-12.0344
isha	-12.0345
▁logistic	-12.0348
▁haunt	-12.0349
▁tears	-12.0351
ander	-12.0351
▁captur	-12.0352
▁phyl	-12.0352
▁herb	-12.0354
▁hymns	-12.0356
ux	-12.0356
▁eject	-12.0358
▁manchu	-12.0358
▁accompaniment	-12.0359
▁dissertation	-12.0359
▁cthulhu	-12.0359
▁fission	-12.0359
▁euphrate	-12.0359
▁halloween	-12.0359
▁gestapo	-12.0359
▁automorphism	-12.0359
▁millimeter	-12.0359
▁pompe	-12.0359
▁contempt	-12.036
▁mosquito	-12.036
▁coordinator	-12.036
▁mistress	-12.036
▁judith	-12.036
▁excommunication	-12.0361
▁meher	-12.0363
▁consultation	-12.0365
▁collar	-12.0366
▁dem	-12.0368
▁celsi	-12.0371
▁barley	-12.0371
▁jurispruden	-12.0373
▁liar	-12.0374
▁hunger	-12.0377
▁setup	-12.0378
▁chalk	-12.0381
▁electors	-12.0381
▁uran	-12.0382
▁convent	-12.0384
▁ariel	-12.0387
▁palma	-12.0388
▁cryptographic	-12.0392
▁remedie	-12.0398
▁piu	-12.0398
zone	-12.0401
▁drops	-12.0402
▁circ	-12.0403
gone	-12.0405
▁psychic	-12.041
▁tutor	-12.0412
▁goats	-12.0414
▁perish	-12.0424
▁causal	-12.0427
▁upgrad	-12.0432
▁radi	-12.0433
▁postmodern	-12.0441
mler	-12.0441
▁hr	-12.0442
▁mural	-12.0442
▁flour	-12.0443
▁encrypt	-12.0444
▁sperm	-12.0444
▁refrain	-12.0444
▁repertoire	-12.0444
▁satisfaction	-12.0444
▁inclination	-12.0444
▁aforementio	-12.0444
▁ineffective	-12.0444
▁fuse	-12.0445
▁botanist	-12.0445
▁fortunate	-12.0447
▁peerage	-12.0447
▁generous	-12.0447
▁arminian	-12.0447
▁vicious	-12.0447
▁keynesian	-12.0448
▁condemnation	-12.045
ene	-12.0452
ito	-12.0453
▁crass	-12.0453
▁cake	-12.0453
hrow	-12.0456
eworth	-12.0457
▁conserv	-12.0461
▁kil	-12.0461
lab	-12.0464
▁orioles	-12.0468
▁lemon	-12.0468
▁raven	-12.0469
▁intuition	-12.0472
▁penal	-12.0473
ctivism	-12.0474
▁innate	-12.0474
▁niels	-12.0477
cl	-12.048
wind	-12.0481
▁categoriz	-12.0483
▁slavs	-12.0485
▁penetrat	-12.0489
▁muse	-12.0492
▁ghosts	-12.0494
▁pins	-12.0495
peace	-12.0499
solar	-12.0502
▁prais	-12.0504
▁excuse	-12.0506
▁blonde	-12.0508
ua	-12.0508
▁milo	-12.051
▁philo	-12.0516
▁clans	-12.0517
▁polit	-12.052
▁kami	-12.0522
▁newman	-12.0522
▁germ	-12.0526
▁gravitation	-12.0527
▁tacitu	-12.0527
▁inertia	-12.0528
▁lockheed	-12.0529
▁mahayana	-12.0529
▁baldrick	-12.0529
▁dissident	-12.0529
▁zodiac	-12.0529
▁esteem	-12.053
▁relegat	-12.053
▁reptile	-12.053
▁detainee	-12.053
▁ordination	-12.0532
▁skip	-12.0532
▁hitter	-12.0533
▁partement	-12.0534
vision	-12.0534
▁ef	-12.0536
▁hopper	-12.0536
▁wilkins	-12.0539
face	-12.054
▁wade	-12.0541
▁stemm	-12.0545
rin	-12.0546
▁golem	-12.0549
▁experimentation	-12.0552
▁dumb	-12.0554
▁ich	-12.0561
▁isomer	-12.0563
▁laurenc	-12.0564
▁magneto	-12.0565
▁dft	-12.0565
ada	-12.0571
▁underne	-12.0571
▁teen	-12.0572
her	-12.0575
nes	-12.0583
▁aunt	-12.0586
▁kl	-12.0587
▁oec	-12.0588
▁pra	-12.0593
▁smuggl	-12.0594
▁kh	-12.0595
▁weld	-12.0595
▁airborn	-12.0598
▁oc	-12.0599
▁slim	-12.0599
▁feud	-12.0603
▁andorra	-12.0605
▁krishna	-12.0609
▁agassi	-12.0609
rton	-12.0611
▁courtes	-12.0611
▁zwingli	-12.0612
▁ufo	-12.0612
▁carthaginian	-12.0616
▁declension	-12.0616
▁fahrenheit	-12.0616
▁landslide	-12.0616
▁aeronautic	-12.0616
▁supplant	-12.0616
▁spoof	-12.0616
▁discredit	-12.0616
▁charismatic	-12.0616
▁floyd	-12.0616
▁refinement	-12.0616
▁fluent	-12.0616
▁accommodation	-12.0616
▁ribbon	-12.0616
▁encyclopaedia	-12.0616
▁discworld	-12.0616
▁screenwriter	-12.0616
▁bentley	-12.0617
▁wir	-12.0618
▁freebsd	-12.0618
▁inappropriate	-12.0618
▁disruption	-12.0619
▁shatter	-12.0621
▁ashoka	-12.0622
▁minus	-12.0623
▁notebook	-12.0624
▁freeze	-12.0625
▁fetus	-12.0626
▁pressing	-12.0626
lpine	-12.0634
▁inscrib	-12.0635
▁pest	-12.0636
▁butterfly	-12.0639
▁prospero	-12.0643
itz	-12.0644
▁moldovan	-12.0646
▁jurist	-12.0646
▁queue	-12.0647
▁cummings	-12.065
▁bosnian	-12.0651
▁jorge	-12.0651
luble	-12.0652
aya	-12.0653
▁sql	-12.0654
amir	-12.0655
▁comply	-12.0659
▁meyer	-12.0659
▁ape	-12.0663
▁fairy	-12.0667
▁bis	-12.0669
▁millennia	-12.067
▁yin	-12.067
▁refract	-12.067
▁mapp	-12.0676
▁humble	-12.0677
▁unwan	-12.0679
▁apl	-12.0679
▁borde	-12.0689
▁ori	-12.0692
▁ration	-12.0694
onic	-12.0694
▁hyde	-12.0699
▁salon	-12.0701
▁apocrypha	-12.0701
▁unfair	-12.0701
▁britannia	-12.0702
▁ecliptic	-12.0702
▁grateful	-12.0703
▁unpublish	-12.0703
▁rehabilitation	-12.0703
▁rommel	-12.0703
▁solidarit	-12.0703
▁magnificent	-12.0703
▁premiership	-12.0704
▁consultant	-12.0704
▁workstation	-12.0705
▁gibbon	-12.0706
▁stylistic	-12.0707
▁flu	-12.0708
▁taggart	-12.0709
▁excellence	-12.0709
zoic	-12.0709
▁escher	-12.071
▁cn	-12.0711
▁dmt	-12.0712
▁assimilat	-12.0714
▁emulate	-12.0715
▁welles	-12.0715
▁epi	-12.0715
▁avant	-12.0716
▁optic	-12.0717
▁seuss	-12.0717
esgue	-12.0717
ayev	-12.0718
▁daisy	-12.0721
away	-12.0724
▁eschatolog	-12.0724
ru	-12.0725
▁pencil	-12.0725
▁wo	-12.0725
▁unemploy	-12.0726
▁barker	-12.0728
▁fist	-12.0731
▁url	-12.0732
▁vulgar	-12.0735
▁randi	-12.0735
wall	-12.0736
▁bre	-12.0738
▁intonation	-12.0741
▁andreas	-12.0745
▁hunters	-12.0748
▁graz	-12.0751
▁excited	-12.0753
▁alberto	-12.0754
dium	-12.0757
▁philippe	-12.0757
ishi	-12.0762
▁mul	-12.0769
fo	-12.0772
pur	-12.0774
▁cro	-12.0775
▁invoke	-12.0776
▁riders	-12.0777
▁lap	-12.0778
▁tasmania	-12.078
▁micronesia	-12.078
▁oust	-12.0781
ill	-12.0784
abad	-12.0787
▁confident	-12.079
▁geographer	-12.079
▁magellan	-12.079
▁negligibl	-12.079
▁diphthong	-12.079
▁rumsfeld	-12.079
▁capsule	-12.079
▁cannabi	-12.079
▁relevanc	-12.079
▁fanzine	-12.079
yama	-12.079
▁tentative	-12.079
▁meridian	-12.0791
▁tidal	-12.0791
▁ephes	-12.0791
ori	-12.0792
▁accusative	-12.0792
▁microtubule	-12.0793
▁relieve	-12.0793
▁arsenic	-12.0794
▁supper	-12.0794
▁msf	-12.0794
▁coinage	-12.0795
▁klaus	-12.0796
▁davy	-12.0803
▁kingston	-12.0805
▁traverse	-12.0806
▁divert	-12.0807
▁explod	-12.0809
▁dispatch	-12.081
ibus	-12.0815
phone	-12.0817
crc	-12.0818
▁digimo	-12.0818
▁chu	-12.0819
▁algerian	-12.0819
▁revealing	-12.0819
▁boson	-12.082
▁andrea	-12.0822
tor	-12.0824
▁hom	-12.0825
dos	-12.0828
▁pars	-12.0828
▁revive	-12.0829
▁apprentice	-12.0834
▁berylli	-12.0839
▁svg	-12.0839
▁shiva	-12.0848
▁stras	-12.0848
▁principalit	-12.0852
▁cho	-12.0855
▁filling	-12.0856
▁plots	-12.0857
▁limburg	-12.0857
▁logg	-12.0859
▁keeper	-12.0864
▁moc	-12.0869
▁lama	-12.087
▁spd	-12.087
▁frustrat	-12.0871
▁resurrect	-12.0877
wire	-12.0877
▁undoubted	-12.0879
▁hexadecimal	-12.0879
▁velvet	-12.0879
▁broncos	-12.0879
▁marathon	-12.0879
▁rainforest	-12.0879
▁auction	-12.0879
▁utiliti	-12.0879
▁bluegrass	-12.0879
▁watterson	-12.0879
▁remake	-12.0879
▁farewell	-12.0879
▁medici	-12.0879
▁allusion	-12.0879
▁wicket	-12.0879
▁mitochondria	-12.0879
▁lightweight	-12.0879
▁overturn	-12.0879
▁himalaya	-12.0879
▁collaborative	-12.088
▁cottage	-12.088
▁oslo	-12.088
▁airbus	-12.0881
▁dentist	-12.0881
▁elisha	-12.0881
▁fischer	-12.0882
▁hecate	-12.0882
▁apocryphal	-12.0882
iety	-12.0883
▁facial	-12.0884
▁islet	-12.0885
▁hahn	-12.0888
ubble	-12.0889
▁geometrical	-12.089
▁borman	-12.089
▁activate	-12.0891
▁sweeping	-12.0894
▁leaning	-12.0895
wight	-12.0897
wear	-12.09
▁reunit	-12.0901
▁glue	-12.0901
▁directive	-12.0913
▁duc	-12.0919
▁popula	-12.0923
▁bubbles	-12.0924
▁nord	-12.0925
moines	-12.0929
▁erich	-12.0932
▁exil	-12.0934
▁grapes	-12.0935
▁bates	-12.0939
dison	-12.0939
▁pt	-12.0939
rie	-12.094
▁helm	-12.0946
▁mohammad	-12.0948
▁omar	-12.0951
dorf	-12.0951
▁ethic	-12.0957
▁pont	-12.0957
▁icd	-12.0959
▁harden	-12.0959
▁bricks	-12.096
▁punjab	-12.0962
phase	-12.0963
▁incapab	-12.0964
▁koi	-12.0966
▁yom	-12.0967
▁caravaggio	-12.0968
▁contingent	-12.0968
▁corridor	-12.0968
▁disregard	-12.0968
▁promethe	-12.0968
▁cigarette	-12.0968
▁infringement	-12.0968
▁irreducible	-12.0969
▁socrate	-12.0969
▁headache	-12.0969
▁cobol	-12.0969
▁flop	-12.0969
▁lexical	-12.097
▁lagoon	-12.097
▁kaiser	-12.097
▁overflow	-12.097
▁wrath	-12.097
▁insurrection	-12.0971
▁pentecostal	-12.0972
▁groom	-12.0973
▁fansite	-12.0973
▁rodent	-12.0975
▁ana	-12.0976
▁creativity	-12.0976
▁spouse	-12.0979
▁conferr	-12.0979
▁adviser	-12.0983
▁brightness	-12.0983
▁chr	-12.0984
▁russ	-12.0986
▁greenberg	-12.0987
sworth	-12.0993
▁shame	-12.0993
jo	-12.0993
▁labs	-12.0994
▁vulnerabilit	-12.0995
▁dualism	-12.0997
▁cafe	-12.0998
▁meaningless	-12.1
▁fortifi	-12.1003
▁federalist	-12.1005
ico	-12.1005
▁nc	-12.1009
▁damn	-12.101
▁coating	-12.1012
▁dug	-12.1013
▁def	-12.1023
▁fears	-12.103
df	-12.103
▁sei	-12.1031
▁jenni	-12.1039
▁somali	-12.1044
▁steiner	-12.1044
dira	-12.1045
▁holt	-12.1053
▁specialis	-12.1054
▁nano	-12.1055
▁jimi	-12.1056
▁subtract	-12.1056
▁conscript	-12.1057
▁secession	-12.1057
▁obituar	-12.1058
▁linebacker	-12.1058
▁supersonic	-12.1058
▁mouthpiece	-12.1058
▁cretac	-12.1058
▁rochester	-12.1058
▁vertebrate	-12.1058
▁coincidence	-12.1059
▁contiguous	-12.1059
▁panzer	-12.1059
▁spinoza	-12.1059
▁venetian	-12.1059
▁cobalt	-12.106
▁hemoglobin	-12.106
▁attila	-12.1062
▁luigi	-12.1063
▁vivid	-12.1063
▁undesirable	-12.1064
▁investigator	-12.1065
▁goldman	-12.1067
▁crossover	-12.1068
▁idiot	-12.1069
▁ordering	-12.1069
▁pend	-12.1069
▁ironic	-12.1071
▁maturit	-12.1072
▁hurd	-12.1073
rt	-12.1075
ore	-12.1076
▁rf	-12.1077
ika	-12.1078
▁sinking	-12.1079
▁zi	-12.1083
▁meso	-12.1084
▁nut	-12.1085
air	-12.1089
▁tens	-12.1092
form	-12.1093
wi	-12.1093
ip	-12.1094
▁iff	-12.1095
tfield	-12.11
▁modeling	-12.1101
▁leas	-12.1104
▁hermit	-12.1107
▁typ	-12.1109
▁jin	-12.111
▁mort	-12.1115
▁jeho	-12.1116
normal	-12.1117
say	-12.1118
organic	-12.1119
woman	-12.1119
▁vanish	-12.1119
▁napi	-12.112
▁wandering	-12.1122
▁ambush	-12.1123
▁galt	-12.1123
▁neuro	-12.1127
▁improvis	-12.1131
▁bearer	-12.1134
▁overt	-12.1137
▁ranch	-12.1138
zhou	-12.114
▁fla	-12.1142
partame	-12.1142
▁sel	-12.1142
▁zam	-12.1142
▁consecrat	-12.1144
▁mig	-12.1146
▁seals	-12.1148
▁reversibl	-12.1149
▁conspirator	-12.1149
▁umbrella	-12.1149
▁sophia	-12.1149
▁dubious	-12.1149
▁midwest	-12.1149
▁banjo	-12.1149
▁envision	-12.1149
▁juvenile	-12.115
▁alkali	-12.115
▁procedural	-12.115
▁astrological	-12.115
▁sleeve	-12.1151
▁hanse	-12.1151
▁distribut	-12.1153
▁edda	-12.1154
▁goldwater	-12.1154
▁weaver	-12.1154
▁ruthless	-12.1155
▁cosmos	-12.1155
▁madeira	-12.1158
▁puts	-12.1159
▁rebuild	-12.1159
▁incorporation	-12.1161
▁ei	-12.1162
▁sodom	-12.1162
▁outpost	-12.1163
▁bor	-12.1163
▁rr	-12.1163
ersen	-12.1163
uala	-12.1163
▁josia	-12.1164
▁hosting	-12.1166
▁cri	-12.1167
▁aperture	-12.1167
▁toilet	-12.1168
▁tenet	-12.1169
▁irena	-12.1169
▁forcibl	-12.118
▁schema	-12.1181
▁cad	-12.1182
ftu	-12.1182
▁selfish	-12.1185
▁foe	-12.1188
▁odor	-12.1189
▁frankie	-12.1191
witt	-12.1192
lr	-12.1193
▁mathcal	-12.12
▁notre	-12.1208
▁rib	-12.1208
israeli	-12.1211
▁industrializ	-12.1211
▁halve	-12.1214
▁loot	-12.1216
▁chen	-12.1216
▁swear	-12.1216
zed	-12.1217
▁iberian	-12.122
▁coco	-12.1224
▁louise	-12.1227
icao	-12.1227
▁zambia	-12.123
▁og	-12.123
eira	-12.123
▁pict	-12.1231
▁uganda	-12.1231
▁galicia	-12.1231
▁numeric	-12.1233
▁goethe	-12.1236
▁resin	-12.1236
▁getty	-12.1237
▁euphonium	-12.1237
sserit	-12.1238
▁overwhelm	-12.1239
rock	-12.124
▁unpleasant	-12.1241
▁paraguay	-12.1241
▁brabant	-12.1241
▁hypercard	-12.1241
▁outrage	-12.1241
▁unreliab	-12.1241
▁nightmare	-12.1241
▁sidney	-12.1241
▁gopher	-12.1241
▁reload	-12.1241
▁microcomputer	-12.1241
▁decorative	-12.1242
▁amphetamine	-12.1243
▁ounce	-12.1243
▁forget	-12.1243
▁ldap	-12.1244
▁cheek	-12.1244
▁forrest	-12.1244
▁assassinate	-12.1246
▁jockey	-12.1247
▁atlantis	-12.1248
▁archery	-12.1248
umps	-12.1248
▁verdi	-12.125
▁freestyle	-12.1251
▁skinner	-12.1251
▁bologn	-12.1252
▁mei	-12.1252
▁comedie	-12.1252
▁instinct	-12.1254
▁realis	-12.1254
▁euthanasi	-12.1254
▁scrolls	-12.1255
▁spine	-12.1256
▁greed	-12.1257
▁penny	-12.1257
▁pause	-12.1261
▁credibil	-12.1264
▁betty	-12.1265
▁davidson	-12.1265
▁dal	-12.1266
▁tracing	-12.1267
▁industrialist	-12.127
▁terminat	-12.1271
▁diari	-12.1272
▁favorabl	-12.1275
van	-12.1276
▁alias	-12.1276
▁hare	-12.1277
▁mediate	-12.128
▁walks	-12.1281
▁penetrate	-12.1281
▁holden	-12.1282
▁eros	-12.1284
▁cv	-12.1292
▁yuan	-12.1294
zi	-12.1295
▁hardness	-12.1296
▁barber	-12.13
▁dw	-12.1301
▁quart	-12.1301
▁terminate	-12.1302
▁luci	-12.1302
rp	-12.1302
mon	-12.1303
season	-12.1303
▁nad	-12.1305
▁ven	-12.1306
▁gile	-12.1306
▁sco	-12.131
pe	-12.1313
▁humidit	-12.1315
▁federat	-12.1316
▁italic	-12.1318
▁tilt	-12.132
dar	-12.132
▁mau	-12.1323
▁egalitarian	-12.1333
▁utilitarian	-12.1333
▁pashtun	-12.1333
▁greyhound	-12.1333
▁ecstasy	-12.1333
▁macroeconomic	-12.1333
▁syrup	-12.1334
▁verify	-12.1334
▁venge	-12.1334
▁vinci	-12.1334
▁shrimp	-12.1335
▁multitude	-12.1335
▁faint	-12.1336
▁bayer	-12.1338
▁iteration	-12.134
▁volatile	-12.1343
▁shores	-12.1346
node	-12.1347
▁smithson	-12.1347
pl	-12.1348
▁asiatic	-12.1348
▁exp	-12.1353
▁polyhedra	-12.1354
▁subfamil	-12.1355
▁stiff	-12.1356
▁rew	-12.136
▁anselm	-12.1361
▁rhode	-12.1364
▁modulo	-12.1365
tin	-12.1369
▁picking	-12.1373
▁benin	-12.1374
▁router	-12.1375
▁ot	-12.1377
▁prop	-12.138
▁vols	-12.1386
tar	-12.1386
▁contracepti	-12.1392
▁dsm	-12.1399
put	-12.1402
bes	-12.1405
▁macedon	-12.1408
▁yarn	-12.1414
▁bets	-12.1416
▁claus	-12.142
▁moth	-12.1422
▁aristocrac	-12.1427
▁bernoulli	-12.1427
▁pessoa	-12.1427
▁lexicon	-12.1427
▁adolph	-12.1427
▁joystick	-12.1427
▁daimler	-12.1427
▁orphan	-12.1427
▁longbow	-12.1428
▁retract	-12.1429
▁mvp	-12.1429
▁melville	-12.1429
▁sergei	-12.1429
▁clare	-12.1429
▁modems	-12.1429
▁troop	-12.1431
▁lacan	-12.1431
▁grec	-12.1431
▁savoy	-12.1432
▁multiplay	-12.1432
▁screw	-12.1433
▁endow	-12.1433
ception	-12.1434
▁antigua	-12.1435
▁delight	-12.1437
▁glow	-12.1438
▁strive	-12.144
▁kaza	-12.144
▁hose	-12.1441
▁kali	-12.1443
▁cabin	-12.1446
▁noah	-12.1446
▁walsh	-12.1446
▁ppp	-12.1452
▁eritrean	-12.1453
▁vert	-12.1454
▁partisan	-12.1455
▁tired	-12.1458
▁linnae	-12.1459
▁homophobi	-12.1459
owitz	-12.146
owski	-12.1465
▁eukaryot	-12.1465
▁mating	-12.1465
▁mag	-12.1469
▁mingu	-12.147
▁ilo	-12.1472
crosse	-12.1476
▁siz	-12.1478
▁converter	-12.1478
▁adversar	-12.1482
▁appreciate	-12.1486
▁locks	-12.1486
▁ow	-12.1487
▁plead	-12.149
▁mai	-12.1492
iacea	-12.1495
stage	-12.1496
▁filk	-12.1497
▁rez	-12.1501
series	-12.1506
▁predominate	-12.1508
madic	-12.151
▁kana	-12.1512
che	-12.1513
stra	-12.1514
space	-12.1517
olo	-12.1518
▁reproduc	-12.1518
▁chakra	-12.152
▁intellect	-12.1521
▁syracus	-12.1521
▁unauthori	-12.1521
▁chopstick	-12.1521
▁discontent	-12.1521
▁climax	-12.1521
▁miraculous	-12.1521
▁jenkins	-12.1521
▁akbar	-12.1521
▁cognition	-12.1521
▁residue	-12.1521
▁rasputin	-12.1521
▁escalator	-12.1522
▁hitchhiker	-12.1522
▁eliot	-12.1522
▁katana	-12.1523
▁negation	-12.1523
▁roster	-12.1523
▁athanasi	-12.1525
▁darius	-12.1529
▁kiev	-12.1533
▁ransom	-12.1533
▁repress	-12.1533
▁scattering	-12.1534
▁yi	-12.1536
▁spartan	-12.1537
▁alignment	-12.1537
▁slain	-12.1542
▁distinguishe	-12.1542
▁petty	-12.1543
▁ethel	-12.155
▁danes	-12.155
rc	-12.1551
▁propagat	-12.1555
▁vu	-12.1557
haven	-12.1558
▁mara	-12.1558
▁io	-12.1562
▁alder	-12.1562
▁bose	-12.1564
▁promulgat	-12.1566
▁sega	-12.1567
shima	-12.1568
▁midland	-12.1568
▁sank	-12.1568
▁minded	-12.1571
▁reid	-12.1577
▁wicked	-12.1579
▁tenses	-12.1579
▁thor	-12.1583
▁lor	-12.1584
▁auditor	-12.1584
▁eno	-12.1585
▁barb	-12.1588
▁lite	-12.159
ban	-12.1591
▁unionist	-12.1592
▁trainer	-12.1594
▁mutin	-12.1599
matter	-12.1599
▁moravia	-12.1606
▁polynesia	-12.1606
kar	-12.161
▁impressionist	-12.1611
▁parc	-12.1611
▁halting	-12.1612
▁patricia	-12.1613
▁trauma	-12.1614
▁addict	-12.1614
▁comb	-12.1614
▁lev	-12.1616
▁citadel	-12.1616
▁tsunami	-12.1616
▁decomposition	-12.1616
▁brython	-12.1616
▁filipino	-12.1616
▁concise	-12.1616
▁hydroxide	-12.1616
▁decentraliz	-12.1617
▁eponymous	-12.1617
pen	-12.1617
▁fulham	-12.1617
▁kraft	-12.1617
▁axiomatic	-12.1617
▁endemic	-12.1618
▁breakfast	-12.1618
▁niece	-12.1618
▁drown	-12.1618
▁plott	-12.1618
▁burgundian	-12.1619
▁attendant	-12.1621
▁simplify	-12.1622
▁php	-12.1622
▁pu	-12.1623
▁wetland	-12.1623
▁newtonian	-12.1625
▁cab	-12.1625
▁kwh	-12.1627
▁khrus	-12.1627
▁debat	-12.1628
▁polytechnic	-12.1632
▁advise	-12.1632
▁gaia	-12.1633
▁bos	-12.1633
▁orator	-12.1633
▁securit	-12.1636
▁andrews	-12.1636
▁herbs	-12.1639
▁cfa	-12.1639
▁undermine	-12.164
▁paulo	-12.1642
▁diffuse	-12.1643
▁keeps	-12.1644
apest	-12.1644
▁apt	-12.1645
▁inclusive	-12.1647
▁toast	-12.1648
▁mess	-12.1648
▁discern	-12.1648
▁belle	-12.1653
▁syn	-12.1654
dma	-12.1659
horn	-12.1662
▁trench	-12.1663
vi	-12.1665
▁vine	-12.1667
▁equit	-12.1677
eck	-12.168
wicz	-12.1682
▁organizer	-12.1687
▁disput	-12.1689
▁mah	-12.1689
▁tetra	-12.169
▁assemble	-12.1697
▁nj	-12.1699
vin	-12.17
icameral	-12.1701
▁mas	-12.1701
▁topograph	-12.1702
▁filing	-12.1703
lev	-12.1703
▁palatal	-12.1706
erland	-12.1706
▁unus	-12.1707
▁gigant	-12.1707
▁voluntari	-12.1712
▁chechnya	-12.1712
▁eclectic	-12.1712
▁leicester	-12.1712
▁mmorpg	-12.1712
▁endeavor	-12.1712
▁caucasian	-12.1712
▁henderson	-12.1713
▁peruvian	-12.1713
▁cyborg	-12.1713
▁ghetto	-12.1713
▁biochemical	-12.1713
▁ugric	-12.1713
▁hexagon	-12.1713
▁ricardo	-12.1713
▁ulysse	-12.1713
▁embodie	-12.1713
▁cardiac	-12.1713
▁filio	-12.1713
▁fuchs	-12.1713
▁pentium	-12.1714
▁moose	-12.1714
▁hdtv	-12.1714
▁burgess	-12.1714
▁monoid	-12.1714
▁violinist	-12.1715
▁deportation	-12.1715
▁wrappe	-12.1716
▁coriol	-12.1716
uffman	-12.1718
▁chunk	-12.1718
▁europa	-12.1719
▁croquet	-12.1719
▁crises	-12.1721
▁beers	-12.1721
▁thickness	-12.1722
▁gan	-12.1722
▁contractor	-12.1722
▁assured	-12.1723
▁hanukka	-12.1723
▁lemur	-12.1725
▁bert	-12.1728
▁promis	-12.173
▁davies	-12.1731
▁competent	-12.1731
▁levin	-12.1732
oid	-12.1738
kan	-12.1739
lis	-12.174
aten	-12.174
▁zip	-12.1741
▁summariz	-12.1741
▁mongolian	-12.1742
▁habe	-12.1743
ub	-12.1743
▁kmt	-12.1745
▁woo	-12.1748
▁derry	-12.1748
▁arpa	-12.176
▁hamper	-12.1765
▁devastat	-12.1765
▁energetic	-12.1767
vo	-12.1768
▁overdose	-12.1769
▁cons	-12.1771
iff	-12.1775
▁differentiat	-12.1775
take	-12.1776
▁awakening	-12.1778
▁gh	-12.178
nc	-12.1782
▁ascrib	-12.1782
▁benson	-12.1784
autobiographical	-12.1787
▁ric	-12.1787
▁lamps	-12.1788
atty	-12.1789
▁launche	-12.179
▁carta	-12.179
▁abdu	-12.1795
▁baum	-12.1798
▁predate	-12.1798
▁simulat	-12.1799
ried	-12.1799
▁rh	-12.1807
▁whal	-12.1807
▁dir	-12.1808
▁transplant	-12.1808
▁retard	-12.1809
▁cerebral	-12.181
▁curvature	-12.181
▁divisor	-12.181
▁hydroelectric	-12.181
▁innocence	-12.181
▁monotheist	-12.181
▁tectonic	-12.181
▁tolstoy	-12.181
▁unveil	-12.181
▁yiddish	-12.181
▁mcgraw	-12.181
▁geyser	-12.181
▁annan	-12.181
▁thomson	-12.181
▁lambert	-12.181
▁efficac	-12.181
▁oscillation	-12.181
▁madonna	-12.181
▁backbone	-12.1811
▁felon	-12.1811
▁animator	-12.1814
▁assent	-12.1816
▁factual	-12.1817
▁formalism	-12.1817
▁bout	-12.1817
cp	-12.1818
▁allele	-12.1821
▁ramp	-12.1822
▁lobe	-12.1823
▁indic	-12.1827
▁rhodesia	-12.183
▁writ	-12.1834
▁oceania	-12.1837
▁doo	-12.1838
▁signifie	-12.1839
▁laus	-12.184
▁fluor	-12.1843
▁curl	-12.1847
lithic	-12.1849
▁handel	-12.1851
▁submerg	-12.1854
oyle	-12.1855
phasia	-12.1858
▁centaur	-12.1859
ide	-12.1861
▁tuscany	-12.1862
▁tab	-12.1864
▁intrinsic	-12.1866
▁manic	-12.1868
▁neal	-12.1869
▁qi	-12.1869
ash	-12.187
iya	-12.1872
▁conceive	-12.1874
▁correlate	-12.1874
▁raj	-12.1875
▁marion	-12.1875
▁fil	-12.1875
▁inlet	-12.1876
▁holly	-12.1878
▁fringe	-12.1884
▁homolog	-12.1884
▁assembler	-12.1887
▁kapp	-12.1887
▁pretend	-12.1888
▁sardinia	-12.1897
map	-12.19
▁erotic	-12.1903
▁antwerp	-12.1908
▁diocletian	-12.1908
▁plutarch	-12.1908
▁unacceptabl	-12.1908
▁gerrymander	-12.1908
▁laptop	-12.1908
▁boomerang	-12.1908
▁dilemma	-12.1908
▁relinquish	-12.1908
▁biosphere	-12.1908
▁bethlehem	-12.1908
▁basilica	-12.1908
▁microphone	-12.1908
▁superstar	-12.1909
▁articulation	-12.1909
▁grams	-12.191
▁revisit	-12.191
▁deterministic	-12.1911
▁carboxyl	-12.1911
▁enrich	-12.1912
▁disposal	-12.1913
jective	-12.1915
▁lynd	-12.1915
▁transcend	-12.1915
▁traveler	-12.1918
▁latenc	-12.192
▁jolie	-12.1925
▁ingest	-12.1928
▁presenter	-12.1928
▁slovenian	-12.1929
▁lyric	-12.193
▁reorganiz	-12.1931
▁parachute	-12.1931
▁fret	-12.1933
▁bury	-12.1936
▁cambodian	-12.1939
▁durham	-12.1943
▁debit	-12.1944
pedia	-12.1944
▁falklands	-12.1947
▁housed	-12.1948
are	-12.1949
▁collegia	-12.1953
▁llama	-12.1953
▁veda	-12.1954
▁welcom	-12.1954
▁lament	-12.1958
▁unitar	-12.1958
▁barks	-12.1959
▁augusta	-12.196
▁ib	-12.1964
gart	-12.1972
tree	-12.1972
▁malaya	-12.1974
▁creationist	-12.1976
▁laplac	-12.1977
▁surreal	-12.1978
nabla	-12.1979
▁alley	-12.1979
▁lever	-12.1981
▁bessel	-12.1982
▁commando	-12.1987
▁historiograph	-12.1988
▁heel	-12.1989
mnon	-12.1991
▁lionel	-12.1995
awa	-12.1998
▁waterlo	-12.2
▁moloto	-12.2003
▁parental	-12.2003
▁amplifie	-12.2005
▁byzanti	-12.2006
▁imposing	-12.2007
▁mandrake	-12.2007
▁montserrat	-12.2007
▁altruism	-12.2007
▁cleopa	-12.2007
▁kermit	-12.2007
▁lorentz	-12.2007
▁disappointment	-12.2007
▁thursday	-12.2007
▁fpga	-12.2007
▁torvald	-12.2007
▁tobago	-12.2007
▁distress	-12.2007
interdisciplinar	-12.2007
▁flint	-12.2007
▁crossbow	-12.2007
▁healthcare	-12.2007
▁matild	-12.2007
▁resentment	-12.2007
▁deuteri	-12.2007
▁impairment	-12.2008
▁elastic	-12.2009
▁eliza	-12.2009
▁peso	-12.2009
▁margrave	-12.201
▁bedford	-12.2011
▁replie	-12.2013
▁vent	-12.2013
▁feasibl	-12.2014
▁columnist	-12.2015
▁polynesian	-12.2018
chlorine	-12.2019
kowski	-12.202
oever	-12.2021
▁mbit	-12.2021
▁masonic	-12.2022
▁renewal	-12.2024
works	-12.2027
▁mudd	-12.2027
▁monumental	-12.203
▁cyru	-12.203
▁forestry	-12.2035
▁swim	-12.204
▁cooperate	-12.2045
▁fancy	-12.2045
av	-12.2046
pro	-12.2049
▁bengali	-12.205
▁telecom	-12.205
▁larva	-12.2055
▁johan	-12.2056
▁candle	-12.2059
fire	-12.2061
▁sinn	-12.2064
ku	-12.2067
fu	-12.2068
zuma	-12.2071
nf	-12.2075
▁invert	-12.2075
▁incidental	-12.2079
op	-12.2084
iferous	-12.2086
▁shek	-12.2087
▁shadows	-12.2088
▁modal	-12.209
▁breasts	-12.2091
▁spade	-12.2091
▁deserve	-12.2092
▁polite	-12.2096
▁polls	-12.2097
▁midst	-12.2098
ator	-12.2099
smith	-12.2101
▁vera	-12.2104
▁fare	-12.2104
▁dyes	-12.2106
▁katakana	-12.2107
▁sigismund	-12.2107
▁ostensibl	-12.2107
▁aristotelian	-12.2107
▁polygon	-12.2107
▁boltzman	-12.2107
▁halakha	-12.2107
▁haskell	-12.2107
▁chimpanzee	-12.2107
▁nightclub	-12.2107
▁haiku	-12.2107
▁detach	-12.2107
▁coleco	-12.2108
▁parrot	-12.2108
▁inspection	-12.2108
▁antille	-12.2108
▁deletion	-12.2108
▁tensor	-12.2108
▁sniper	-12.2109
▁solitar	-12.2109
▁neptune	-12.211
▁agrarian	-12.211
▁consolidation	-12.2111
▁cancellation	-12.2111
▁weiss	-12.2112
▁sabre	-12.2117
▁tipp	-12.2117
▁illumination	-12.2118
▁madness	-12.212
eu	-12.212
▁blurr	-12.2122
▁retrieval	-12.2122
▁freenet	-12.2126
▁dow	-12.2129
▁luna	-12.2129
▁clipper	-12.213
ain	-12.213
▁rodrigue	-12.2137
▁fermion	-12.2137
▁sandwich	-12.214
▁cod	-12.2143
▁hagu	-12.2144
▁linu	-12.2145
fort	-12.2147
▁libel	-12.2147
▁clip	-12.2149
▁rebell	-12.215
yne	-12.2154
▁torch	-12.2155
▁blu	-12.2155
▁stok	-12.2157
▁surge	-12.216
▁fonts	-12.216
ough	-12.2163
▁jumper	-12.2164
▁trolls	-12.2169
▁unitarian	-12.2169
▁toxicit	-12.2169
▁onion	-12.217
ska	-12.217
tha	-12.2174
hchev	-12.2174
▁challenger	-12.218
▁univ	-12.2183
▁concord	-12.2188
▁dei	-12.219
▁mx	-12.2193
armament	-12.2193
▁aureli	-12.2198
▁bagpipe	-12.2204
▁intersect	-12.2206
▁transliterat	-12.2206
▁pedestrian	-12.2208
▁rothbard	-12.2208
▁atrocit	-12.2208
▁barrister	-12.2208
▁verdict	-12.2208
▁viscount	-12.2208
▁enlighten	-12.2208
▁safeguard	-12.2208
▁klux	-12.2208
▁mediator	-12.2209
▁digestive	-12.221
▁feyn	-12.2211
▁exacerbat	-12.2212
▁dogmatic	-12.2212
▁braun	-12.2212
each	-12.2212
▁amid	-12.2213
▁terrier	-12.2213
▁multipli	-12.2213
▁nikolai	-12.2213
▁existent	-12.2214
▁inductive	-12.2214
▁testify	-12.2214
▁reeve	-12.2214
▁goose	-12.2216
▁cardio	-12.2218
▁creditor	-12.2218
▁alienat	-12.222
unu	-12.222
▁psyche	-12.2221
▁query	-12.2223
▁nz	-12.2223
ob	-12.2224
▁tian	-12.2225
▁pacifist	-12.2226
▁glycoly	-12.2228
▁hrer	-12.2229
▁tx	-12.2231
▁buch	-12.2231
▁xv	-12.2237
▁conversations	-12.2237
▁judy	-12.2239
▁domini	-12.2239
▁corneli	-12.2241
cast	-12.2243
▁regina	-12.2244
▁ww	-12.2244
▁ahab	-12.2251
▁secede	-12.2254
▁maximize	-12.2254
agara	-12.2254
▁listeners	-12.2256
▁illnesses	-12.2259
log	-12.2263
▁livy	-12.2264
rfolk	-12.2266
▁brien	-12.2267
orah	-12.2268
▁lust	-12.227
▁verne	-12.2272
▁fluctuations	-12.2272
▁pizza	-12.2274
▁outlin	-12.2275
ep	-12.228
castle	-12.2281
▁botan	-12.2289
▁app	-12.2289
▁ode	-12.2291
▁eurasia	-12.2295
▁andhra	-12.2298
▁kidnapping	-12.2298
iosis	-12.2299
▁greeting	-12.2301
lf	-12.2303
▁granad	-12.2303
▁cb	-12.2304
▁soar	-12.2308
▁checks	-12.2309
▁adhesive	-12.231
▁emerald	-12.231
▁neopagan	-12.231
▁plaintiff	-12.231
▁prostitute	-12.231
▁sasquatch	-12.231
▁cockpit	-12.231
▁centimeter	-12.231
▁forerunner	-12.231
▁shipowner	-12.231
▁magyar	-12.231
▁peanut	-12.231
▁doctrinal	-12.231
▁aachen	-12.231
▁eng	-12.231
▁fictitio	-12.231
▁kalinin	-12.2311
▁ignorant	-12.2311
▁sunny	-12.2312
▁levant	-12.2312
▁conjugate	-12.2314
▁existentialism	-12.2314
▁godwin	-12.2315
▁aired	-12.2317
▁conven	-12.232
▁lonely	-12.232
child	-12.2321
▁marino	-12.2322
▁supervisor	-12.2322
▁takeover	-12.2326
ausen	-12.2328
ethren	-12.2328
▁instrumentation	-12.2328
▁emmy	-12.2331
▁pauline	-12.2335
▁unhapp	-12.2337
▁mandel	-12.2337
▁ccc	-12.2338
▁executable	-12.2339
▁alamos	-12.2339
▁liberian	-12.2339
▁worsen	-12.2343
accio	-12.2343
▁broaden	-12.2346
▁strokes	-12.2346
▁gallerie	-12.2349
▁terrace	-12.2351
▁shower	-12.2357
unconstitutional	-12.2358
▁deutsch	-12.2358
▁anagram	-12.2358
▁rig	-12.2362
▁rubb	-12.2363
▁danub	-12.2363
▁julie	-12.2365
▁suck	-12.2367
mail	-12.2369
▁auguste	-12.2371
▁tapp	-12.2374
▁kc	-12.2377
▁kam	-12.2378
▁vis	-12.2382
▁ginger	-12.2387
▁elias	-12.2393
▁opus	-12.2396
▁trusted	-12.2396
▁borlan	-12.2398
val	-12.24
▁dl	-12.2401
▁hanna	-12.2403
▁babie	-12.2406
▁auspic	-12.2407
rius	-12.2409
▁courage	-12.2412
▁multiplicative	-12.2413
▁delusion	-12.2413
▁technician	-12.2413
▁medicinal	-12.2413
▁gulag	-12.2413
▁reg	-12.2413
▁outnumber	-12.2414
▁normative	-12.2414
▁encouragement	-12.2417
▁escalat	-12.2419
▁alteration	-12.2419
▁brecht	-12.242
▁veil	-12.242
▁vista	-12.2421
▁plausibl	-12.2421
▁stole	-12.2422
▁speer	-12.2423
▁seaport	-12.2425
▁bicameral	-12.2425
▁climber	-12.2425
rand	-12.2425
▁qing	-12.2427
rm	-12.243
▁sour	-12.2433
▁consuls	-12.2433
▁fann	-12.2433
▁marr	-12.2434
▁abram	-12.2436
▁sta	-12.2437
alois	-12.2438
▁greet	-12.2438
ensen	-12.2442
▁revolve	-12.2448
▁urdu	-12.2451
▁pill	-12.2452
gut	-12.2457
▁claren	-12.246
▁corners	-12.2461
▁planner	-12.2462
▁starch	-12.2467
▁ainu	-12.2469
▁polariz	-12.247
hurst	-12.2471
▁volt	-12.2473
rov	-12.2475
▁assort	-12.2476
▁retailer	-12.2476
▁woody	-12.2479
▁vitr	-12.248
▁loom	-12.248
bl	-12.2481
aa	-12.2481
▁cheeses	-12.2485
car	-12.2489
▁deplet	-12.249
▁bribe	-12.2491
▁fidone	-12.2492
arthur	-12.2495
▁neu	-12.2496
▁clara	-12.2496
buro	-12.2497
oydon	-12.2498
▁consolidate	-12.2503
▁undermin	-12.251
▁faire	-12.251
cellulose	-12.2511
chett	-12.2511
▁bacteri	-12.2512
▁mimic	-12.2516
▁tripoli	-12.2517
▁worcester	-12.2517
▁eurosceptic	-12.2517
▁liquor	-12.2517
▁turmoil	-12.2517
▁monsoon	-12.2517
▁southampton	-12.2517
▁amalric	-12.2517
▁disclosure	-12.2517
▁rendition	-12.2517
▁clarify	-12.2517
▁templar	-12.2517
▁cyberspace	-12.2517
▁benchmark	-12.2517
▁valign	-12.2517
▁erod	-12.2517
▁versatil	-12.2517
▁malachi	-12.2517
▁indictment	-12.2518
▁canaan	-12.2518
▁mv	-12.2518
▁medina	-12.2519
▁hammond	-12.252
▁harley	-12.2521
▁bra	-12.2521
▁coyote	-12.2521
▁edith	-12.2522
▁clyde	-12.2522
▁truths	-12.2525
▁rep	-12.2527
ris	-12.2528
▁agnes	-12.2528
▁thriller	-12.2529
▁munch	-12.2532
▁copula	-12.2532
▁sicilian	-12.2532
▁almond	-12.2534
etf	-12.2534
▁pluto	-12.2534
▁gba	-12.2536
ennett	-12.2538
heard	-12.2541
▁congregational	-12.2543
▁shark	-12.2544
▁professors	-12.2546
▁letting	-12.2548
ile	-12.255
▁elders	-12.2551
▁quota	-12.2551
nu	-12.2553
▁ea	-12.2554
▁suffixe	-12.2558
making	-12.2558
▁ayn	-12.2558
▁chill	-12.256
▁mirand	-12.2561
▁seeker	-12.2564
▁nag	-12.2565
▁provoke	-12.2566
ollywood	-12.2567
▁marrie	-12.2573
▁intra	-12.2577
ische	-12.2578
▁galile	-12.2579
▁modernization	-12.2579
▁oas	-12.2583
▁sparta	-12.2585
▁selig	-12.2586
▁screens	-12.2588
html	-12.2592
▁haley	-12.2592
fancy	-12.2593
▁subtitle	-12.2594
ende	-12.2594
▁hid	-12.2594
▁cou	-12.2596
▁navarre	-12.2599
▁kidnapp	-12.2605
▁illuminati	-12.2605
[...]
